<unk>	0
<s>	0
</s>	0
��	-0
����	-1
���	-2
▁�	-3
▁���	-4
▁��	-5
ɳɮ	-6
�˵	-7
��˵	-8
�£	-9
jô	-10
�˽	-11
dz	-12
���˵	-13
▁һ	-14
�	-15
���˽	-16
▁ȴ	-17
��˽	-18
DZ	-19
��·	-20
��£	-21
�·	-22
���£	-23
��ˮ	-24
Dz	-25
�ʹ	-26
��	-27
�ˮ	-28
1⁄	-29
���	-30
��ʹ	-31
▁ֻ	-32
̫�	-33
�¡	-34
˵�	-35
���·	-36
�	-37
˵��	-38
ʥɮ	-39
үү	-40
�˼	-41
��˼	-42
IJ	-43
▁Ҳ	-44
▁�˽	-45
���˼	-46
ƶɮ	-47
▁ʦ	-48
��ͬ	-49
���ˮ	-50
1⁄2	-51
▁ȥ	-52
�̣	-53
·��	-54
̲�	-55
�ʿ	-56
˵���	-57
˽�	-58
اٴ	-59
�ͣ	-60
▁ɮ	-61
��ͨ	-62
�£�	-63
���ʹ	-64
�ͬ	-65
�	-66
��¡	-67
ij	-68
�˶	-69
وٴ	-70
���	-71
̧ͷ	-72
�߽	-73
��	-74
▁ͷ	-75
·�	-76
�˵��	-77
▁́	-78
���¡	-79
▁̄	-80
عم	-81
�˰	-82
��߽	-83
�˹	-84
▁ɽ	-85
▁С	-86
�˾	-87
��ͣ	-88
��	-89
�˽�	-90
▁֮	-91
ˮ�	-92
▁̧	-93
�˳	-94
˱��	-95
▁��˵	-96
�£��	-97
▁ǰ	-98
1⁄4	-99
��£�	-100
��̫	-101
�˻	-102
�˲	-103
κΣ	-104
ۇٴ	-105
���̣	-106
���	-107
يٴ	-108
�˴	-109
·���	-110
�¥	-111
�̫	-112
���˶	-113
���ͣ	-114
▁ʮ	-115
��׽	-116
���̫	-117
£�	-118
▁ô	-119
��˵�	-120
ͯ�	-121
ˮ��	-122
��˯	-123
��˶	-124
�»	-125
�ͨ	-126
�԰	-127
��1	-128
�߼	-129
▁ɳɮ	-130
��¥	-131
��̣	-132
���߽	-133
▁ͅ	-134
�˷	-135
�˵�	-136
��»	-137
��˷	-138
���˳	-139
�1	-140
���ͬ	-141
3⁄	-142
▁Ҫ	-143
�׽	-144
3⁄4	-145
�«	-146
�˯	-147
�˸	-148
��˽�	-149
���˴	-150
���˷	-151
▁Щ	-152
˽��	-153
��ʿ	-154
���ͨ	-155
�	-156
ʹ���	-157
һһ	-158
�¶	-159
�޵	-160
˽���	-161
��ˮ�	-162
▁֪	-163
�˱	-164
���	-165
��˳	-166
▁ʥ	-167
�°	-168
�ࡣ	-169
��˲	-170
��˹	-171
���1	-172
���˯	-173
▁�£	-174
��¶	-175
��˾	-176
߻�	-177
▁Ī	-178
�÷	-179
��˴	-180
ˮ���	-181
���˲	-182
▁ɦ	-183
�̧	-184
�ʹ�	-185
�·��	-186
���˰	-187
���߼	-188
ţħ	-189
Ǻã	-190
ʹ�	-191
�˭	-192
ͯ��	-193
սս	-194
�	-195
�·�	-196
��˿	-197
��̨	-198
���˹	-199
�˺	-200
�˿	-201
��÷	-202
��̧	-203
�1⁄2	-204
���˱	-205
���԰	-206
̡�	-207
▁ħ	-208
�ׯ	-209
��˭	-210
��˰	-211
▁˵	-212
▁ס	-213
��	-214
��̲�	-215
�¡�	-216
��˺	-217
��·�	-218
ڵأ	-219
▁ǧ	-220
▁Ц	-221
�׷	-222
��׹	-223
���»	-224
һӵ	-225
�ˮ�	-226
��޵	-227
��¡�	-228
���˿	-229
���׹	-230
ɽǰ	-231
һҹ	-232
▁ԭ	-233
��2	-234
���¥	-235
���¶	-236
֪֮	-237
��˸	-238
��	-239
ͬ���	-240
���˺	-241
���˾	-242
���޵	-243
ͬ�	-244
�2	-245
��	-246
���°	-247
���÷	-248
���ࡣ	-249
���	-250
ŵô	-251
ςς	-252
˼��	-253
▁�	-254
��̫�	-255
���˸	-256
���˻	-257
�̲�	-258
��԰	-259
��ׯ	-260
���׽	-261
ͣ�	-262
▁Ȼ	-263
�ͯ	-264
�̫�	-265
��°	-266
��ͯ	-267
̣���	-268
���ͯ	-269
𹿰���	-270
úã	-271
ɲŮ	-272
ʧɫ	-273
�3	-274
�͡	-275
�͸	-276
�޹	-277
�޺	-278
▁Ѱ	-279
�̥	-280
�׹	-281
�	-282
ʹ��	-283
߼��	-284
��̵	-285
��ͤ	-286
��޲	-287
�˼��	-288
��ͬ�	-289
���˭	-290
ǰȥ	-291
ɭɭ	-292
ͨ�	-293
ЩС	-294
▁ȡ	-295
�	-296
�̰	-297
��˱	-298
��͸	-299
��׷	-300
��޺	-301
�ʿ��	-302
�ˮ��	-303
���̧	-304
���޹	-305
˯�	-306
˼�	-307
▁Ϊ	-308
�̤	-309
�̨	-310
�̲	-311
�	-312
үүѽ	-313
�ͣ�	-314
��˻	-315
��޹	-316
��ࡣ	-317
˯���	-318
▁��·	-319
���ׯ	-320
ǻɻ	-321
̣�	-322
ته	-323
▁û	-324
▁ս	-325
�̾	-326
�߾	-327
▁�˼	-328
£���	-329
ͨ���	-330
�1⁄4	-331
�¡��	-332
���3	-333
���ʿ	-334
ææ	-335
▁̫	-336
�΢	-337
ͬ��	-338
��̤	-339
��߼	-340
�˽��	-341
���	-342
xx	-343
ȥȡ	-344
ȥɦ	-345
▁ɳ	-346
▁ʯ	-347
�	-348
�ʼ	-349
�̡	-350
�̻	-351
�޼	-352
£��	-353
˧��	-354
��̸	-355
��޴	-356
��󾭣	-357
���	-358
���̨	-359
���͹	-360
ƮƮ	-361
˴�	-362
СС	-363
߽�	-364
▁·	-365
▁Ů	-366
▁ͽ	-367
�̶	-368
�׵	-369
�ٰ	-370
�	-371
�˻�	-372
�̣�	-373
��ʼ	-374
��̰	-375
�˶��	-376
���2	-377
ľĸ	-378
˳�	-379
ΡΡ	-380
▁ˮ	-381
▁ς	-382
�ʺ	-383
�˩	-384
�޸	-385
��3	-386
��ͭ	-387
�ʹ��	-388
��ʹ�	-389
���̵	-390
¶�	-391
ŵø	-392
Ƥȹ	-393
ǺǴ	-394
͡�	-395
ҲҪ	-396
▁ʹ	-397
�˧	-398
�ͤ	-399
�޴	-400
˴��	-401
▁̄�	-402
▁�̣	-403
��	-404
��̻	-405
��̾	-406
▁��ˮ	-407
▁��̫	-408
�˹��	-409
��˼�	-410
���	-411
���«	-412
���̾	-413
ŵù	-414
ɩɩ	-415
ɻɻ	-416
Сͯ	-417
һЩ	-418
لإ	-419
޶�	-420
▁ͬ	-421
▁ҡ	-422
▁ת	-423
�̸	-424
�̿	-425
�޲	-426
;��	-427
˲��	-428
̽��	-429
׽��	-430
▁�¡	-431
�ͬ�	-432
�ͯ�	-433
�߻�	-434
�߽�	-435
��͹	-436
��΢	-437
��޷	-438
▁�˽�	-439
���̤	-440
���̷	-441
���̸	-442
���׷	-443
���޳	-444
Īæ	-445
ĺã	-446
ŵģ	-447
ɮȡ	-448
˾�	-449
ֻ֪	-450
▁¥	-451
㤾壬	-452
�̵	-453
�޷	-454
�߻	-455
̨��	-456
ͨ��	-457
▁́�	-458
▁̧�	-459
▁�߽	-460
�˹�	-461
�˼�	-462
��̡	-463
▁˵��	-464
�˱��	-465
���̥	-466
���ٰ	-467
˧�	-468
˫˫	-469
ׯ�	-470
׽�	-471
شي	-472
▁ɻ	-473
▁ʫ	-474
▁δ	-475
▁ү	-476
▁ҹ	-477
▁ի	-478
�ͭ	-479
�͹	-480
�׼	-481
�޿	-482
�߿	-483
�	-484
,��	-485
jôȥ	-486
˷��	-487
ͣ��	-488
▁˵�	-489
��̳	-490
▁��ʹ	-491
▁��ʿ	-492
���	-493
�3⁄4	-494
�˲��	-495
�˳��	-496
�ͬ��	-497
��¥�	-498
���޺	-499
���߿	-500
���	-501
õģ	-502
Ůͯ	-503
ǧɽ	-504
ȡʤ	-505
˲�	-506
ѰЩ	-507
ԶԶ	-508
جم	-509
᲻�	-510
▁ɫ	-511
▁ɱ	-512
▁л	-513
˳��	-514
̫��	-515
▁jô	-516
▁�˵	-517
�ʿ�	-518
�̡�	-519
��	-520
��̶	-521
��׵	-522
��׼	-523
��ٰ	-524
��	-525
��ͣ�	-526
��߽�	-527
���̹	-528
���ͤ	-529
���׾	-530
���޴	-531
���	-532
���	-533
ĮĮ	-534
ŵð	-535
Žţ	-536
ǰʩ	-537
ȴȥ	-538
ɴͤ	-539
˺�	-540
˻�	-541
ϸϸ	-542
ҡҡ	-543
һС	-544
في	-545
▁λ	-546
▁ֱ	-547
�±	-548
�̷	-549
�̺	-550
�̼	-551
�̽	-552
�޳	-553
˯��	-554
ׯ��	-555
▁ʥɮ	-556
▁�˰	-557
�¶�	-558
�˳�	-559
�˴�	-560
�˶�	-561
�԰�	-562
�߼�	-563
��±	-564
��̥	-565
��̴	-566
��޼	-567
��𹿰	-568
��򾻣	-569
;���	-570
˴���	-571
▁�£�	-572
�÷��	-573
���	-574
��˷�	-575
���̰	-576
���͡	-577
���׼	-578
���޷	-579
���޼	-580
���𹿰	-581
;�	-582
¡�	-583
ĬĬ	-584
ɽȥ	-585
̩ɽ	-586
԰�	-587
׷�	-588
ڵء	-589
߶߶	-590
▁ƽ	-591
▁ͨ	-592
▁ͭ	-593
▁Ϣ	-594
▁а	-595
▁Ӧ	-596
▁ּ	-597
�׶	-598
�޶	-599
�⹫	-600
�𹿰	-601
¿��	-602
÷��	-603
˾��	-604
̲��	-605
΢��	-606
▁�	-607
�˯�	-608
��,	-609
��̹	-610
��̽	-611
��׺	-612
��޶	-613
��޽	-614
��	-615
˼���	-616
▁ͅ��	-617
▁��¥	-618
�˻��	-619
�԰��	-620
��˯�	-621
��ͨ�	-622
���ʼ	-623
���̶	-624
���޶	-625
���	-626
ãã	-627
ëʨ	-628
Ūɱ	-629
ȫȻ	-630
ɮʦ	-631
ɿɵ	-632
ʥȴ	-633
ʯɽ	-634
˷�	-635
˿�	-636
̧�	-637
ͬȥ	-638
͸�	-639
ҪѰ	-640
خم	-641
޵�	-642
ߺߺ	-643
߾�	-644
▁ɢ	-645
▁ʩ	-646
▁ʿ	-647
▁˫	-648
▁ϸ	-649
▁ӭ	-650
▁Զ	-651
▁ײ	-652
�̴	-653
�󾪵	-654
¶��	-655
ʾ��	-656
˶��	-657
˿��	-658
̧��	-659
فخم	-660
ٰ��	-661
�˰�	-662
�˾�	-663
��«	-664
��ʺ	-665
��ͥ	-666
��׾	-667
��߻	-668
̨���	-669
̫���	-670
ͣ���	-671
▁��ͯ	-672
�«��	-673
��1�	-674
��԰�	-675
���±	-676
���˩	-677
���̻	-678
���̿	-679
���ͭ	-680
���׮	-681
���׵	-682
���޲	-683
���޸	-684
¿�	-685
øɾ	-686
ŵö	-687
ǰǰ	-688
˸�	-689
˹�	-690
СУ	-691
߼�	-692
಻�	-693
▁ë	-694
▁Ū	-695
▁ȫ	-696
▁˭	-697
▁Ұ	-698
�׺	-699
�⿪	-700
�	-701
�￴	-702
˻��	-703
԰��	-704
لجم	-705
߿��	-706
▁�	-707
�˰˽	-708
�˸�	-709
��˧	-710
��˩	-711
��ͦ	-712
¡���	-713
˸���	-714
׶���	-715
▁̄��	-716
�˷��	-717
�̫��	-718
�ͣ��	-719
���	-720
��2�	-721
��׽�	-722
���̡	-723
���̲	-724
���̳	-725
���̴	-726
���̽	-727
���׸	-728
���޽	-729
���߾	-730
æȡ	-731
Ƭɦ	-732
ȫû	-733
ȴĪ	-734
˰�	-735
Ѱһ	-736
تم	-737
ߵͣ	-738
ߺߵ	-739
▁ÿ	-740
▁ǹ	-741
▁ǿ	-742
▁ʤ	-743
▁ʨ	-744
▁ҧ	-745
▁Ԫ	-746
▁ָ	-747
�̳	-748
�޾	-749
�򡣡	-750
�򾻣	-751
�󣬲	-752
�󣬻	-753
1��	-754
▁�˶	-755
▁�˺	-756
▁�޳	-757
�¥̨	-758
�¥�	-759
�˺�	-760
�ͨ�	-761
��	-762
��̷	-763
��͡	-764
��޳	-765
��޿	-766
��߿	-767
��󾪵	-768
▁́��	-769
▁�̲�	-770
▁��ͨ	-771
▁��ͬ	-772
���	-773
�2��	-774
�¥��	-775
�˰��	-776
�˸��	-777
�˺��	-778
�̧��	-779
�ͨ��	-780
��˲�	-781
��˴�	-782
��˺�	-783
��˾�	-784
��̧�	-785
��߻�	-786
���׺	-787
���޻	-788
���󣬱	-789
1�	-790
¥�	-791
ôȥ	-792
ûǮ	-793
ĪŪ	-794
Ƥͤ	-795
ǻƷ	-796
ɫɫ	-797
ʨū	-798
ʿ�	-799
˰˽	-800
˶�	-801
̤һ	-802
̰˽	-803
ЩЩ	-804
ҪС	-805
Ҫһ	-806
ҳԡ	-807
ҳԣ	-808
ֱͦ	-809
׮�	-810
طم	-811
ٰ�	-812
ڰڣ	-813
▁ƾ	-814
▁˯	-815
▁Ͷ	-816
▁Գ	-817
▁׽	-818
▁ߵ	-819
�	-820
�׾	-821
�޻	-822
�	-823
�	-824
�񡣡	-825
�񣬰	-826
�񣬲	-827
jôɽ	-828
¡��	-829
ɳɮȴ	-830
ʿ��	-831
˰��	-832
˵�˽	-833
˹��	-834
̣��	-835
▁ƶɮ	-836
▁�ʹ	-837
▁�˸	-838
▁�̻	-839
�˱�	-840
�˲�	-841
�˿�	-842
�͸�	-843
�׽�	-844
��˥	-845
��̦	-846
��಻	-847
��⹫	-848
��￴	-849
��󾭡	-850
1⁄2�	-851
÷���	-852
˻���	-853
͸���	-854
԰���	-855
׹���	-856
߽���	-857
▁��˯	-858
�˴��	-859
�ࡣ��	-860
��¥̨	-861
��˹�	-862
��̡�	-863
��ͯ�	-864
��ׯ�	-865
��׹�	-866
��޲�	-867
���¿	-868
���ͥ	-869
���⹫	-870
���񣬼	-871
���󣬰	-872
���󣬽	-873
ĵģ	-874
Ļţ	-875
ŵó	-876
ŵõ	-877
ŵý	-878
ŵġ	-879
ƴǣ	-880
ƹƹ	-881
ƻɻ	-882
ǧǧ	-883
Ǽƣ	-884
Ⱥħ	-885
Ⱥȣ	-886
ȽȽ	-887
ɮñ	-888
ɮȥ	-889
ɵģ	-890
ʤǿ	-891
ʥʩ	-892
ͻͻ	-893
ЦЦ	-894
гԣ	-895
һͬ	-896
һӦ	-897
Կա	-898
֧ס	-899
ֹס	-900
׹�	-901
ڵؽ	-902
޲�	-903
▁r	-904
▁x	-905
▁æ	-906
▁ĸ	-907
▁Ƥ	-908
▁ǣ	-909
▁ǽ	-910
▁˪	-911
▁ͯ	-912
▁͵	-913
▁Ը	-914
▁չ	-915
▁֤	-916
▁װ	-917
�,	-918
�;	-919
�©	-920
�̱	-921
�̹	-922
�ͦ	-923
�޽	-924
�಻	-925
�	-926
2��	-927
ɵIJ	-928
˸��	-929
˺��	-930
̤��	-931
̥��	-932
̶��	-933
̸��	-934
ͦ��	-935
͸��	-936
͹��	-937
׶��	-938
׻��	-939
ڹاٴ	-940
߻��	-941
▁ˮ�	-942
▁̫�	-943
▁ͅ�	-944
▁�˱	-945
▁�˲	-946
▁�˴	-947
▁�ͣ	-948
▁�׷	-949
▁�޲	-950
▁�޿	-951
▁�𹿰	-952
��	-953
��	-954
�ˮ·	-955
�˷�	-956
�̤�	-957
�̧�	-958
�̨�	-959
�ׯ�	-960
�޹�	-961
��§	-962
��©	-963
��ʽ	-964
��ʾ	-965
��̲	-966
��̿	-967
��׸	-968
��߾	-969
��᲻	-970
��	-971
��󣬽	-972
3⁄4�	-973
¶���	-974
ʿ���	-975
˱���	-976
˾���	-977
̲���	-978
׽���	-979
▁��̨	-980
���	-981
�,��	-982
�1��	-983
�˯��	-984
�˾��	-985
�˿��	-986
�̥��	-987
�׷��	-988
�߼��	-989
���	-990
���	-991
��ʼ�	-992
��ʿ�	-993
��˳�	-994
��̣�	-995
��ͤ�	-996
���,	-997
���;	-998
ëƬ	-999
ðð	-1000
ôģ	-1001
ôȴ	-1002
÷�	-1003
úá	-1004
ĨĨ	-1005
ĮȻ	-1006
ūū	-1007
űţ	-1008
ŵĵ	-1009
ŵľ	-1010
ƮȻ	-1011
Ƶģ	-1012
Ǻá	-1013
Ǻǵ	-1014
ǿɺ	-1015
ȴû	-1016
ɦǰ	-1017
ɵġ	-1018
ɽţ	-1019
ɽȪ	-1020
ʯʨ	-1021
ʺ�	-1022
̥Ȫ	-1023
̨֮	-1024
̫ƽ	-1025
̸�	-1026
̼䣬	-1027
ͤ�	-1028
ЪЪ	-1029
не	-1030
ҪЩ	-1031
үһ	-1032
Ҳһ	-1033
Ҽң	-1034
ӯӯ	-1035
ֱֱ	-1036
װٰ	-1037
ײײ	-1038
ڼݣ	-1039
۹ۿ	-1040
޸�	-1041
߸̫	-1042
߿�	-1043
▁L	-1044
▁ľ	-1045
▁ţ	-1046
▁Ǯ	-1047
▁ʢ	-1048
▁ʧ	-1049
▁̤	-1050
▁ͣ	-1051
▁Θ	-1052
▁΢	-1053
▁Ω	-1054
▁ѧ	-1055
▁ѹ	-1056
▁ѽ	-1057
▁ҩ	-1058
▁ӯ	-1059
▁Բ	-1060
▁ִ	-1061
▁ק	-1062
▁ר	-1063
▁ׯ	-1064
▁ߺ	-1065
�	-1066
�̦	-1067
�͢	-1068
�ͥ	-1069
�׿	-1070
�᣿	-1071
�鿱	-1072
�	-1073
�񣬸	-1074
�񣿡	-1075
�򣬵	-1076
�󣬰	-1077
�󣬱	-1078
�󣬶	-1079
�󣬽	-1080
�󾭣	-1081
ûjô	-1082
˭��	-1083
̾��	-1084
׮��	-1085
޶��	-1086
޸�ˮ	-1087
޼��	-1088
▁·�	-1089
▁˯�	-1090
▁̧ɣ	-1091
▁̧ͷ	-1092
▁�1	-1093
▁�˷	-1094
▁�˾	-1095
▁�̵	-1096
▁�׶	-1097
▁�޵	-1098
��	-1099
��	-1100
�˭�	-1101
�˵˵	-1102
�̶�	-1103
�᲻�	-1104
��	-1105
��¿	-1106
��ˬ	-1107
��⻹	-1108
��	-1109
��񣡡	-1110
˰��	-1111
˳���	-1112
˹���	-1113
̧���	-1114
߼���	-1115
ࡣ���	-1116
▁̧��	-1117
▁�¶�	-1118
▁��̤	-1119
▁��ͭ	-1120
�̣��	-1121
�΢��	-1122
�ׯ��	-1123
��»�	-1124
��˭�	-1125
��˶�	-1126
��˸�	-1127
��˿�	-1128
��̤�	-1129
��͡�	-1130
��͸�	-1131
��͹�	-1132
���[	-1133
���ʺ	-1134
���ʻ	-1135
���ʾ	-1136
���̺	-1137
���ͦ	-1138
���΢	-1139
���׶	-1140
���಻	-1141
���	-1142
���	-1143
���	-1144
���￴	-1145
���񣬸	-1146
���򵹣	-1147
���󣬶	-1148
𾦣���	-1149
3�	-1150
ôŪ	-1151
õö	-1152
õġ	-1153
ŤŤ	-1154
ŵã	-1155
ŵû	-1156
ŵĻ	-1157
źá	-1158
žȵ	-1159
ƬƬ	-1160
ǰɽ	-1161
ǵø	-1162
ǵı	-1163
ǵķ	-1164
Ǻǣ	-1165
ȡȥ	-1166
ȥǰ	-1167
ȥȥ	-1168
Ȳɣ	-1169
Ȼƣ	-1170
Ȼʡ	-1171
ɢȥ	-1172
ɮȴ	-1173
ɻģ	-1174
ɽɽ	-1175
ʥȥ	-1176
ʧȺ	-1177
ʧʧ	-1178
˭�	-1179
̫ʦ	-1180
̻壬	-1181
Ͷ̥	-1182
δΪ	-1183
лл	-1184
ѰѰ	-1185
ҫҫ	-1186
Ҳ̧	-1187
һѰ	-1188
һҡ	-1189
һҶ	-1190
ӵӵ	-1191
ץס	-1192
׻�	-1193
׼�	-1194
ال	-1195
سل	-1196
شح	-1197
شر	-1198
صم	-1199
غم	-1200
ڵص	-1201
▁ð	-1202
▁ģ	-1203
▁Ĩ	-1204
▁ƥ	-1205
▁Ʈ	-1206
▁ƿ	-1207
▁Ȱ	-1208
▁ȹ	-1209
▁ɨ	-1210
▁ɰ	-1211
▁ʁ	-1212
▁ʼ	-1213
▁˩	-1214
▁˽	-1215
▁̨	-1216
▁Χ	-1217
▁β	-1218
▁Ь	-1219
▁б	-1220
▁ѡ	-1221
▁Ѫ	-1222
▁Ѷ	-1223
▁Ӥ	-1224
▁ӥ	-1225
▁Ա	-1226
▁Ժ	-1227
▁Ի	-1228
▁֦	-1229
�	-1230
�	-1231
�	-1232
�ʻ	-1233
�ˬ	-1234
�׻	-1235
�᲻	-1236
�	-1237
�	-1238
�񣬽	-1239
�򵹣	-1240
�󡣡	-1241
�󣬷	-1242
�󣬿	-1243
�󾭡	-1244
򡣡�	-1245
󣬲�	-1246
󺣣�	-1247
jôɦ	-1248
ɳɮǣ	-1249
̰��	-1250
̵��	-1251
ͥ��	-1252
سلم	-1253
طمح	-1254
ڹوٴ	-1255
޷��	-1256
▁DZ	-1257
▁ľĸ	-1258
▁ʹ�	-1259
▁ͬ�	-1260
▁һҹ	-1261
▁�˹	-1262
▁�̶	-1263
▁�͡	-1264
▁�͹	-1265
▁�޴	-1266
▁�޹	-1267
▁�޼	-1268
�2�	-1269
�3�	-1270
�°�	-1271
�»�	-1272
�ʺ�	-1273
�ʼ�	-1274
�˩�	-1275
�̰˽	-1276
�̻�	-1277
�͡�	-1278
�ͤ�	-1279
�ٰ�	-1280
�޼�	-1281
�߾�	-1282
�ࡣ�	-1283
��	-1284
��¬	-1285
��̩	-1286
��̺	-1287
��׬	-1288
��׻	-1289
��޻	-1290
��޾	-1291
��鿱	-1292
��	-1293
��񣬲	-1294
��񣬽	-1295
��󺣣	-1296
�񡣡�	-1297
󣬾��	-1298
ððʧʧ	-1299
̡���	-1300
̸���	-1301
̾���	-1302
ͤ���	-1303
ׯ���	-1304
وسلم	-1305
▁·��	-1306
▁��÷	-1307
▁��˼	-1308
�¶��	-1309
�»�°	-1310
�˭��	-1311
�̰��	-1312
�ͯ��	-1313
�׽��	-1314
���	-1315
��˰˽	-1316
��˻�	-1317
��̵�	-1318
��̶�	-1319
��̹�	-1320
��ͥ�	-1321
��ͭ�	-1322
��׼�	-1323
��޵�	-1324
��޶�	-1325
���	-1326
���§	-1327
���ʽ	-1328
���˧	-1329
���ˬ	-1330
���̱	-1331
���͸	-1332
���޾	-1333
���޿	-1334
���⿪	-1335
���񣬶	-1336
���򣡡	-1337
���󣬿	-1338
���󾭣	-1339
��󾭣�	-1340
򡣡���	-1341
󾪵���	-1342
2�	-1343
¥̨	-1344
»�	-1345
æʩ	-1346
òȡ	-1347
óɹ	-1348
ôû	-1349
õã	-1350
õú	-1351
õĺ	-1352
öɣ	-1353
úô	-1354
üɽ	-1355
ÿÿ	-1356
ĦŪ	-1357
ħʮ	-1358
İŽ	-1359
ĵĵ	-1360
ĵĺ	-1361
ĵĽ	-1362
ĺô	-1363
ŭL	-1364
Ůò	-1365
ŵñ	-1366
ŵİ	-1367
ŵĶ	-1368
ŵƻ	-1369
źã	-1370
źó	-1371
źȵ	-1372
žƺ	-1373
ƭȥ	-1374
ƵƵ	-1375
ƽƽ	-1376
ƽɦ	-1377
ǫǫ	-1378
ǰʮ	-1379
ǵá	-1380
ǵġ	-1381
ǵȳ	-1382
ǷŹ	-1383
ǹŪ	-1384
Ǻô	-1385
ǾŸ	-1386
Ǿɻ	-1387
ȥŪ	-1388
ȥɽ	-1389
ȥͨ	-1390
Ȳɵ	-1391
ȴȡ	-1392
ȵã	-1393
ȵû	-1394
Ⱥţ	-1395
Ȼû	-1396
ɢɢ	-1397
ɦɦ	-1398
ɦͨ	-1399
ɱɮ	-1400
ɳɳ	-1401
ɵù	-1402
ɵĹ	-1403
ɸɾ	-1404
ɼƣ	-1405
ɽĦ	-1406
ɽǧ	-1407
ɽʯ	-1408
ɾƣ	-1409
ʁx	-1410
ʥĪ	-1411
ʮƥ	-1412
ʹʹ	-1413
ʼ�	-1414
˱�	-1415
̩�	-1416
̴ռ	-1417
̴�	-1418
̵�	-1419
̶�	-1420
̸ʫ	-1421
̽�	-1422
̾�	-1423
ͭ�	-1424
Ͱ͵	-1425
ͽ̣	-1426
Ϳ̿	-1427
ΘΘ	-1428
λͽ	-1429
Сһ	-1430
гԡ	-1431
ѵС	-1432
Ҳѧ	-1433
ҲӦ	-1434
ҶҶ	-1435
һͨ	-1436
һЪ	-1437
һӭ	-1438
һԪ	-1439
Ҽҵ	-1440
Ҽһ	-1441
ҽУ	-1442
Ӧһ	-1443
ӦԪ	-1444
ӰӰ	-1445
Ԫҹ	-1446
԰˽	-1447
Ըի	-1448
տտ	-1449
תת	-1450
جي	-1451
زص	-1452
شأ	-1453
له	-1454
ٰݵ	-1455
ڹټ	-1456
ڹۿ	-1457
ڼݳ	-1458
ݹټ	-1459
޹�	-1460
޼�	-1461
▁3	-1462
▁«	-1463
▁ò	-1464
▁ü	-1465
▁ŭ	-1466
▁ƫ	-1467
▁Ʋ	-1468
▁Ʒ	-1469
▁Ȧ	-1470
▁Ȯ	-1471
▁Ⱥ	-1472
▁ͤ	-1473
▁ϯ	-1474
▁д	-1475
▁ѩ	-1476
▁Ѻ	-1477
▁Ү	-1478
▁ҵ	-1479
▁Ҷ	-1480
▁ҽ	-1481
▁ӵ	-1482
▁ԡ	-1483
▁Թ	-1484
▁ռ	-1485
▁վ	-1486
▁ֹ	-1487
▁٤	-1488
▁߯	-1489
㣬̤	-1490
㤾塣	-1491
�[	-1492
�˥	-1493
�̩	-1494
�׬	-1495
�׮	-1496
�׸	-1497
�⻹	-1498
�񣡡	-1499
�񣬶	-1500
�󣬸	-1501
𾦣�	-1502
dzǡ	-1503
dzɹ	-1504
dzɾ	-1505
xxȥ	-1506
°��	-1507
õij	-1508
ǵIJ	-1509
ɳɮʮ	-1510
ɽǰɽ	-1511
ʹ�˶	-1512
˴�·	-1513
̨�£	-1514
̲�̶	-1515
̻��	-1516
ҡһҡ	-1517
׵��	-1518
׷��	-1519
׼��	-1520
تهͤ	-1521
لجي	-1522
޽��	-1523
߽��	-1524
ࡣ��	-1525
▁ĮĮ	-1526
▁ͨ�	-1527
▁һһ	-1528
▁�2	-1529
▁�3	-1530
▁�÷	-1531
▁�ʿ	-1532
▁�̲	-1533
▁�̳	-1534
▁�̷	-1535
▁�޺	-1536
▁�߻	-1537
▁�಻	-1538
▁�	-1539
▁�	-1540
▁�	-1541
▁�󾪵	-1542
�1�	-1543
�̰�	-1544
�̷�	-1545
�̽�	-1546
�̾�	-1547
�̿�	-1548
�޳�	-1549
�޴�	-1550
�޵�	-1551
�޶�	-1552
�޷�	-1553
��[	-1554
��ʻ	-1555
��׿	-1556
��޸	-1557
��⿪	-1558
��	-1559
��	-1560
��	-1561
��	-1562
��󡣡	-1563
�񣬲�	-1564
�󾭡�	-1565
񣿡��	-1566
򡣡��	-1567
,���	-1568
1���	-1569
2���	-1570
3���	-1571
¥���	-1572
ʺ���	-1573
˧���	-1574
˭���	-1575
˰���	-1576
˱��ࡣ	-1577
˲���	-1578
˶���	-1579
ͬ��ͬ	-1580
ͯ���	-1581
͹���	-1582
΢���	-1583
الله	-1584
߿���	-1585
▁�¡�	-1586
▁�˴�	-1587
▁�̻�	-1588
▁�߽�	-1589
▁��	-1590
▁��˿	-1591
▁��ͣ	-1592
▁��ͤ	-1593
▁��΢	-1594
▁��԰	-1595
▁��ׯ	-1596
���	-1597
���	-1598
���	-1599
�3��	-1600
�£�ʹ	-1601
�°��	-1602
�»��	-1603
�̲��	-1604
�̽��	-1605
�̾��	-1606
�͡��	-1607
�׵��	-1608
�׹��	-1609
�޲��	-1610
�޷��	-1611
�޸�ˮ	-1612
�޿��	-1613
�߻��	-1614
�߼�˵	-1615
�߿��	-1616
��	-1617
��°�	-1618
��±�	-1619
��¶�	-1620
��¿�	-1621
��ʹʹ	-1622
��ʾ�	-1623
��˵˵	-1624
��̦޺	-1625
��̨�	-1626
��̰˽	-1627
��̰�	-1628
��̴�	-1629
��̻�	-1630
��԰˽	-1631
��׷�	-1632
��׺�	-1633
��ٰ�	-1634
��޹�	-1635
��޺�	-1636
��޼�	-1637
��߾�	-1638
���	-1639
���	-1640
���©	-1641
���¬	-1642
���˥	-1643
���̩	-1644
���̼	-1645
���᲻	-1646
���	-1647
���	-1648
���񣬽	-1649
���򾻣	-1650
���󡣡	-1651
���󣬷	-1652
���󣬸	-1653
���󣬾	-1654
���󺣣	-1655
��򾻣�	-1656
񣿡��˽	-1657
hǰ	-1658
hȥ	-1659
oô	-1660
rɽ	-1661
sţ	-1662
°˽	-1663
°�	-1664
·;	-1665
æǣ	-1666
ëŮ	-1667
ëƤ	-1668
óɣ	-1669
õð	-1670
õõ	-1671
õý	-1672
õơ	-1673
õȣ	-1674
õȲ	-1675
öx	-1676
öȣ	-1677
ùǣ	-1678
úò	-1679
üë	-1680
üƽ	-1681
ýŲ	-1682
þƣ	-1683
ĥǹ	-1684
Ħȭ	-1685
ħȥ	-1686
ħʩ	-1687
ĪŤ	-1688
Īȡ	-1689
Īȥ	-1690
Īɱ	-1691
ĺú	-1692
Ļŵ	-1693
Ļɻ	-1694
ľȦ	-1695
ľȱ	-1696
ţŮ	-1697
ŨŨ	-1698
Ůæ	-1699
Ůô	-1700
Ůɫ	-1701
ŵú	-1702
ŵÿ	-1703
ŵĴ	-1704
ŵĸ	-1705
ŵĹ	-1706
ŵŵ	-1707
ŵȹ	-1708
Żƽ	-1709
żŵ	-1710
żȻ	-1711
žų	-1712
žŹ	-1713
žŻ	-1714
Ƥɻ	-1715
ưŽ	-1716
Ʋȴ	-1717
Ƴɹ	-1718
ƴȣ	-1719
Ƶö	-1720
Ƶļ	-1721
Ƶơ	-1722
Ƶƣ	-1723
ƶɡ	-1724
Ʒɡ	-1725
Ʒɳ	-1726
ƸǶ	-1727
ƽ̹	-1728
ƿɽ	-1729
ǣţ	-1730
ǣȮ	-1731
ǧħ	-1732
ǧĶ	-1733
ǧȺ	-1734
ǰŪ	-1735
ǰŬ	-1736
ǰŽ	-1737
ǰͬ	-1738
ǵð	-1739
ǵô	-1740
ǵģ	-1741
ǵİ	-1742
ǵĺ	-1743
ǵľ	-1744
ǵȺ	-1745
Ƕg	-1746
ǶȾ	-1747
Ƕɴ	-1748
ǷŻ	-1749
ǷǺ	-1750
Ƿɣ	-1751
ǹȥ	-1752
ǻƺ	-1753
ǽǼ	-1754
Ǿȵ	-1755
ǿʤ	-1756
ǿͣ	-1757
ȥʮ	-1758
ȫƾ	-1759
Ȳɡ	-1760
ȴŪ	-1761
ȴȱ	-1762
ȵð	-1763
ȵý	-1764
ȵġ	-1765
ȵģ	-1766
ȵĺ	-1767
ȺȺ	-1768
Ȼȡ	-1769
Ȼȥ	-1770
Ȼɨ	-1771
Ȼʧ	-1772
Ⱦɫ	-1773
ɦû	-1774
ɦȡ	-1775
ɦȴ	-1776
ɦʧ	-1777
ɨɨ	-1778
ɫƮ	-1779
ɮħ	-1780
ɮŭ	-1781
ɱʦ	-1782
ɲw	-1783
ɳȥ	-1784
ɳɷ	-1785
ɳɸ	-1786
ɳʦ	-1787
ɳ̲	-1788
ɵã	-1789
ɵø	-1790
ɵú	-1791
ɶɡ	-1792
ɹx	-1793
ɹõ	-1794
ɽƽ	-1795
ɽȡ	-1796
ɽȴ	-1797
ɽȵ	-1798
ɾȿ	-1799
ʁɦ	-1800
ʥl	-1801
ʥŭ	-1802
ʥǣ	-1803
ʥȰ	-1804
ʥͣ	-1805
ʦǰ	-1806
ʦȥ	-1807
ʦͬ	-1808
ʧȴ	-1809
ʧɢ	-1810
ʹ˴	-1811
˵˵	-1812
̤�	-1813
̦޺	-1814
̧ȥ	-1815
̫ҽ	-1816
̲ͷ	-1817
̺�	-1818
̻�	-1819
̼ڣ	-1820
ͣס	-1821
ͥ�	-1822
ͦ�	-1823
ͨҲ	-1824
ͬȺ	-1825
֮ͬ	-1826
ͭͷ	-1827
ͷ̾	-1828
ͷϸ	-1829
ͽ̰	-1830
΢΢	-1831
ΧΧ	-1832
Ϊͨ	-1833
Ϊͷ	-1834
Ϊϡ	-1835
Ϊϸ	-1836
εΣ	-1837
ηΣ	-1838
κΡ	-1839
κε	-1840
μμ	-1841
ξͲ	-1842
СЩ	-1843
Цһ	-1844
ЩѪ	-1845
Щӭ	-1846
аҲ	-1847
г̣	-1848
мѻ	-1849
ѡһ	-1850
ѧЩ	-1851
ѰѨ	-1852
ѲѲ	-1853
ѾѾ	-1854
ңң	-1855
ҧһ	-1856
ҩҲ	-1857
үҲ	-1858
үԭ	-1859
Ұз	-1860
ҲЦ	-1861
ҹҹ	-1862
ҹһ	-1863
һЦ	-1864
Ҽҡ	-1865
ҼҸ	-1866
ҽп	-1867
ҽҵ	-1868
Ҿһ	-1869
ӯͥ	-1870
Ӱӳ	-1871
Ӳӣ	-1872
ӳԡ	-1873
ӹҽ	-1874
Ӽң	-1875
ӽе	-1876
Ԫһ	-1877
Աջ	-1878
ԳԵ	-1879
Գժ	-1880
ԶԻ	-1881
Ըա	-1882
ԻԳ	-1883
Կգ	-1884
տգ	-1885
֧֧	-1886
֤֮	-1887
֮֮	-1888
ְ֮	-1889
ֳֹ	-1890
ִ֣	-1891
ֲָ	-1892
ֽ̰	-1893
ֲֽ	-1894
ֽ״	-1895
ָֿ	-1896
סס	-1897
ץץ	-1898
קק	-1899
קת	-1900
׬�	-1901
ױ̨	-1902
ذݸ	-1903
ر٣	-1904
زض	-1905
شم	-1906
صر	-1907
صل	-1908
طي	-1909
عي	-1910
ػأ	-1911
ؽ̣	-1912
مي	-1913
ٰݳ	-1914
ٳ٣	-1915
ڤڤ	-1916
ڲݿ	-1917
ڹپ	-1918
ںڣ	-1919
ڻع	-1920
ڿڳ	-1921
۶࣬	-1922
̣ܽ	-1923
̻ܽ	-1924
ݰݣ	-1925
ݹٴ	-1926
޴�	-1927
޷�	-1928
޺�	-1929
޻�	-1930
߳߳	-1931
߸ߵ	-1932
▁1	-1933
▁h	-1934
▁s	-1935
▁»	-1936
▁ã	-1937
▁ñ	-1938
▁ı	-1939
▁ů	-1940
▁Ƭ	-1941
▁ƹ	-1942
▁Ǭ	-1943
▁Ȩ	-1944
▁Ȫ	-1945
▁ȭ	-1946
▁ȱ	-1947
▁ȵ	-1948
▁ɭ	-1949
▁ɲ	-1950
▁ɹ	-1951
▁ʬ	-1952
▁˧	-1953
▁ˬ	-1954
▁˼	-1955
▁̥	-1956
▁̲	-1957
▁̸	-1958
▁͢	-1959
▁ͻ	-1960
▁ζ	-1961
▁ι	-1962
▁Ϫ	-1963
▁Ϻ	-1964
▁Ъ	-1965
▁й	-1966
▁Ѭ	-1967
▁ң	-1968
▁Ӣ	-1969
▁Ӯ	-1970
▁Ӱ	-1971
▁ӳ	-1972
▁ӿ	-1973
▁԰	-1974
▁Ե	-1975
▁Լ	-1976
▁է	-1977
▁ձ	-1978
▁ճ	-1979
▁յ	-1980
▁ֽ	-1981
▁ש	-1982
▁׳	-1983
▁ٿ	-1984
⻹�	-1985
粻ͬ	-1986
�	-1987
�¿	-1988
�	-1989
�񣬼	-1990
�򣡡	-1991
𹿰�	-1992
񣬼�	-1993
񣿡�	-1994
򣬵�	-1995
󣬰�	-1996
󣬻�	-1997
󣬿�	-1998
Dzɽ	-1999
jôȡ	-2000
¥�£	-2001
¥��	-2002
©��	-2003
·�˿	-2004
·�	-2005
ƶɮǰ	-2006
Ʒij	-2007
Ǻõġ	-2008
ȡjô	-2009
ȥxx	-2010
ɳɮƲ	-2011
ɳɮǰ	-2012
ɳɮȡ	-2013
ɿɵĽ	-2014
ʹ�𹿰	-2015
ʼ��	-2016
˰ٰ�	-2017
˵�˴	-2018
˵�޷	-2019
˺�«	-2020
˺�˵	-2021
˽�ʹ	-2022
˽�׬	-2023
̡��	-2024
̺��	-2025
͡��	-2026
ͬ�˽	-2027
ͭ��	-2028
Цӯӯ	-2029
԰˽�	-2030
׾��	-2031
جمي	-2032
شحي	-2033
غمم	-2034
޲��	-2035
޴��	-2036
޹��	-2037
߼�˵	-2038
᣿��	-2039
▁1�	-2040
▁ææ	-2041
▁Īæ	-2042
▁ȫƾ	-2043
▁ɭɭ	-2044
▁ɮȥ	-2045
▁ɲŮ	-2046
▁˭�	-2047
▁˼�	-2048
▁̧ҡ	-2049
▁̧һ	-2050
▁̧߷	-2051
▁̫ƽ	-2052
▁ͅڰ	-2053
▁ͬȥ	-2054
▁ͬԵ	-2055
▁̨ͭ	-2056
▁ΡΡ	-2057
▁ϸϸ	-2058
▁СС	-2059
▁ЩС	-2060
▁үү	-2061
▁ҲҪ	-2062
▁սս	-2063
▁ׯ�	-2064
▁�°	-2065
▁�»	-2066
▁�˳	-2067
▁�̰	-2068
▁�̼	-2069
▁�͸	-2070
▁�׺	-2071
▁�޷	-2072
▁�߼	-2073
▁�߿	-2074
▁�⿪	-2075
▁�򾻣	-2076
▁�󣬱	-2077
��	-2078
��	-2079
�;�	-2080
�«�	-2081
�°˽	-2082
�¶ˮ	-2083
�·;	-2084
�¿�	-2085
�÷�	-2086
�ʹʹ	-2087
�ʹͣ	-2088
�˧�	-2089
�˽	-2090
�̱�	-2091
�̴�	-2092
�̸�	-2093
�͹�	-2094
�΢΢	-2095
�׷�	-2096
�׹�	-2097
�׺�	-2098
�޵׶	-2099
�޵	-2100
�޸�	-2101
�޽�	-2102
�߿�	-2103
�⹫�	-2104
��	-2105
�￴�	-2106
��̼	-2107
��׮	-2108
��׶	-2109
��	-2110
��	-2111
��񡣡	-2112
��񣬸	-2113
��󣬾	-2114
�񣬸�	-2115
�󣬱�	-2116
�󣬲�	-2117
�󺣣�	-2118
�󾭣�	-2119
𹿰��	-2120
𾦣��	-2121
򣬵��	-2122
󣬲��	-2123
1⁄4�	-2124
dzdz	-2125
ijdz	-2126
©���	-2127
°���	-2128
·��·	-2129
·��׽	-2130
ʹ��ͨ	-2131
ʼ���	-2132
ʾ���	-2133
˯�£�	-2134
˲��£	-2135
˳��˹	-2136
˷���	-2137
˺���	-2138
̤���	-2139
̨��̨	-2140
̵���	-2141
̹���	-2142
̺���	-2143
̻���	-2144
̽���	-2145
͡���	-2146
̨ͭ��	-2147
ͭ���	-2148
ͯ��ͯ	-2149
׮���	-2150
׵���	-2151
׷���	-2152
ںلجم	-2153
޵���	-2154
޾���	-2155
▁¥�£	-2156
▁«��	-2157
▁ɳɮǣ	-2158
▁ʹ��	-2159
▁ˮ��	-2160
▁̄�	-2161
▁̫��	-2162
▁ͭ��	-2163
▁ׯ��	-2164
▁׽��	-2165
▁�˲�	-2166
▁�˳�	-2167
▁�˵�	-2168
▁�˺�	-2169
▁�˾�	-2170
▁�̣�	-2171
▁�̰˽	-2172
▁�͹�	-2173
▁��	-2174
▁��	-2175
▁��1	-2176
▁��»	-2177
▁��˭	-2178
▁��̥	-2179
▁��̧	-2180
▁��ͦ	-2181
▁��׮	-2182
▁��׼	-2183
▁��׽	-2184
���	-2185
���	-2186
���	-2187
�;��	-2188
�©��	-2189
�±��	-2190
�¿��	-2191
�ʹ�	-2192
�ʼ��	-2193
�˥��	-2194
�˧��	-2195
�˩��	-2196
�ˬ��	-2197
�˯�˰	-2198
�˰ٰ�	-2199
�˱�ˮ	-2200
�˲�ͬ	-2201
�˼�ׯ	-2202
�˽�£	-2203
�̳ʹ�	-2204
�̴��	-2205
�̻��	-2206
�̼��	-2207
�͸��	-2208
�׼��	-2209
�׾��	-2210
�޴��	-2211
�޵��	-2212
�޸��	-2213
�޺��	-2214
�޼��	-2215
�߽��	-2216
�߾��	-2217
�಻��	-2218
���	-2219
���	-2220
��,�	-2221
��3�	-2222
��©�	-2223
��«�	-2224
��÷�	-2225
��ʹ˰	-2226
��ʿ˵	-2227
��˧�	-2228
��˰˰	-2229
��˰�	-2230
��˱�	-2231
��̥ˮ	-2232
��̾�	-2233
��ͤͤ	-2234
��ͦ�	-2235
��޴�	-2236
��߼�	-2237
��߽̣	-2238
��߿�	-2239
��಻�	-2240
���	-2241
���	-2242
���׻	-2243
���߻	-2244
���᣿	-2245
���鿱	-2246
���	-2247
���񡣡	-2248
���󾪵	-2249
��𹿰�	-2250
��񣡡�	-2251
��󾭡�	-2252
�񣬲��	-2253
�򾻣��	-2254
�󣬲��	-2255
񡣡���	-2256
񣡡���	-2257
񣬸���	-2258
񣿡���	-2259
󡣡��˽	-2260
󣬻���	-2261
,�	-2262
2¿	-2263
jŴ	-2264
jŷ	-2265
jƺ	-2266
lɱ	-2267
lɳ	-2268
oţ	-2269
oɳ	-2270
oɷ	-2271
rɸ	-2272
s̿	-2273
xɢ	-2274
§�	-2275
©�	-2276
«�	-2277
¬�	-2278
±�	-2279
æȥ	-2280
éɽ	-2281
ëü	-2282
ëǰ	-2283
îɦ	-2284
òô	-2285
òŮ	-2286
óñ	-2287
ôǰ	-2288
õı	-2289
õĵ	-2290
õķ	-2291
õĻ	-2292
öȡ	-2293
öɡ	-2294
÷񣿡	-2295
øɸ	-2296
ùǶ	-2297
úñ	-2298
úú	-2299
ox	-2300
rȫ	-2301
xȴ	-2302
ëƮ	-2303
ðŽ	-2304
ñů	-2305
úÿ	-2306
úȵ	-2307
ûţ	-2308
ûŻ	-2309
ûƽ	-2310
ûȤ	-2311
ûɫ	-2312
üú	-2313
üƣ	-2314
üƮ	-2315
üͤ	-2316
üͯ	-2317
þŰ	-2318
þŲ	-2319
þŵ	-2320
þȱ	-2321
þٰ	-2322
ÿɰ	-2323
ĥī	-2324
ĥȭ	-2325
ħǧ	-2326
ħȴ	-2327
ħɽ	-2328
ħ̸	-2329
Īʪ	-2330
ıs	-2331
ıų	-2332
ıǶ	-2333
Ĵv	-2334
Ĵx	-2335
Ĵȣ	-2336
ĵõ	-2337
ĵġ	-2338
ĵĶ	-2339
ĵķ	-2340
ĵĹ	-2341
ĵĻ	-2342
ĵȺ	-2343
ķɵ	-2344
ķɷ	-2345
ķɽ	-2346
ĸɡ	-2347
ĸʩ	-2348
Ĺx	-2349
Ĺñ	-2350
Ĺȣ	-2351
ĺš	-2352
ĺȵ	-2353
ĺɦ	-2354
Ļh	-2355
ĻŽ	-2356
Ļƾ	-2357
ļƲ	-2358
Ľǣ	-2359
Ľǽ	-2360
Ḷ̌	-2361
ľô	-2362
ľż	-2363
ľɭ	-2364
ľɼ	-2365
ľʩ	-2366
ţǣ	-2367
ţʥ	-2368
Ũû	-2369
Ũĥ	-2370
Ūʦ	-2371
ŮŮ	-2372
Ṵ̊	-2373
ůǧ	-2374
Ŵv	-2375
ŵĺ	-2376
ŵŷ	-2377
ŵƣ	-2378
ŵǿ	-2379
Ŷȿ	-2380
Ŷɽ	-2381
Ŷɿ	-2382
ŷs	-2383
ŷš	-2384
ŷŴ	-2385
ŷŻ	-2386
ŷŽ	-2387
Ÿǣ	-2388
ŹŹ	-2389
źø	-2390
źþ	-2391
Żţ	-2392
ŻŰ	-2393
Żƾ	-2394
żų	-2395
Ž̷	-2396
Ƥë	-2397
Ƥñ	-2398
Ƥɢ	-2399
Dž	-2400
hǹ	-2401
sŵ	-2402
ñȶ	-2403
ôǿ	-2404
ùʣ	-2405
ûģ	-2406
ûǰ	-2407
ıɽ	-2408
ĴǸ	-2409
ĸʢ	-2410
ĺð	-2411
ŵþ	-2412
ŵĽ	-2413
żţ	-2414
Ƥȥ	-2415
ƥǣ	-2416
Ƨɽ	-2417
ƫƧ	-2418
ƫ̻	-2419
Ƭƽ	-2420
ƭŮ	-2421
Ʋū	-2422
ƲƷ	-2423
Ʋʣ	-2424
Ƴƣ	-2425
ƳƳ	-2426
Ƴɴ	-2427
ƴǡ	-2428
ƴȡ	-2429
Ƶø	-2430
Ƶý	-2431
Ƶġ	-2432
Ƶİ	-2433
ƵĴ	-2434
Ƶĸ	-2435
ƶɱ	-2436
ƷƷ	-2437
Ʒɶ	-2438
Ʒʡ	-2439
Ƹɲ	-2440
Ƹɽ	-2441
ƹģ	-2442
ƹŷ	-2443
ƹʣ	-2444
ƺƣ	-2445
ƻʣ	-2446
ƽţ	-2447
ƽǣ	-2448
ƾƣ	-2449
ƾǧ	-2450
ƿȡ	-2451
ƿ̧	-2452
Ǯû	-2453
Ǯȴ	-2454
Ǯʮ	-2455
ǰæ	-2456
ǰƮ	-2457
ǰͤ	-2458
Ǵƿ	-2459
ǵã	-2460
ǵò	-2461
ǵù	-2462
ǵü	-2463
ǵĵ	-2464
ǵĽ	-2465
ǵƲ	-2466
ǵƻ	-2467
ǶĶ	-2468
ǶǸ	-2469
Ƿs	-2470
Ƿź	-2471
Ƿǣ	-2472
Ƿɡ	-2473
Ƿɿ	-2474
Ǹø	-2475
Ǹɺ	-2476
ǹŵ	-2477
ǹŹ	-2478
ǹǣ	-2479
ǹɽ	-2480
ǹٰ	-2481
Ǻx	-2482
Ǻñ	-2483
Ǻø	-2484
Ǻú	-2485
ǺǶ	-2486
Ǻɣ	-2487
ǻƽ	-2488
Ǽȱ	-2489
ǽȥ	-2490
ǽ̷	-2491
Ǿù	-2492
Ǿȣ	-2493
Ǿȳ	-2494
ǿŪ	-2495
ǿŵ	-2496
ȡɻ	-2497
ȡʦ	-2498
ȡʮ	-2499
·ͨ	-2500
óǣ	-2501
ôv	-2502
öĶ	-2503
ùǴ	-2504
ûɽ	-2505
ýŶ	-2506
ý̷	-2507
ķķ	-2508
Ĺǰ	-2509
ĻƲ	-2510
ľƣ	-2511
Ůɦ	-2512
Ʋǹ	-2513
ƴȱ	-2514
ƾʦ	-2515
ǰͥ	-2516
ǵû	-2517
Ǹɵ	-2518
Ǻÿ	-2519
Ǻɡ	-2520
Ǿų	-2521
ȥs	-2522
ȥx	-2523
ȥô	-2524
ȥģ	-2525
ȥĥ	-2526
ȥȰ	-2527
ȥȴ	-2528
ȥʯ	-2529
ȥ̽	-2530
Ȧǽ	-2531
Ȫȥ	-2532
Ȫȴ	-2533
Ȫʯ	-2534
ȫƪ	-2535
ȫȫ	-2536
ȭʯ	-2537
ȱš	-2538
ȱţ	-2539
ȳɸ	-2540
ȴĨ	-2541
ȴǣ	-2542
ȴǷ	-2543
ȴʮ	-2544
ȴ̥	-2545
ȴͬ	-2546
ȵá	-2547
ȵó	-2548
ȵø	-2549
ȵı	-2550
ȵĵ	-2551
ȵľ	-2552
ȵȴ	-2553
ȵȶ	-2554
ȷų	-2555
ȷŵ	-2556
ȷǷ	-2557
ȷɳ	-2558
ȸɸ	-2559
Ⱥð	-2560
Ⱥú	-2561
Ⱥš	-2562
Ⱥʥ	-2563
Ȼǧ	-2564
Ȼʤ	-2565
Ȼ̤	-2566
ȼá	-2567
ȼã	-2568
ȼž	-2569
ȽŻ	-2570
Ⱦã	-2571
Ⱦƣ	-2572
ȿɰ	-2573
ɢȺ	-2574
ɥŮ	-2575
ɥʧ	-2576
ɦr	-2577
ɦŪ	-2578
ɦŭ	-2579
ɦȺ	-2580
ɦɮ	-2581
ɦɱ	-2582
ɦʡ	-2583
ɦͬ	-2584
ɨǬ	-2585
ɨ̳	-2586
ɮô	-2587
ɮû	-2588
ɮǧ	-2589
ɮǰ	-2590
ɮȫ	-2591
ɮɦ	-2592
ɮʁ	-2593
ɮʩ	-2594
ɮʮ	-2595
ɮͦ	-2596
ɮͬ	-2597
ɰx	-2598
ɰŽ	-2599
sɲ	-2600
òƣ	-2601
ôl	-2602
ýţ	-2603
ý̾	-2604
ĵĴ	-2605
ĶĶ	-2606
Ĺŷ	-2607
Ľţ	-2608
Ūô	-2609
ŵı	-2610
ŵž	-2611
Żʣ	-2612
Ƭʯ	-2613
ƵL	-2614
Ƶĺ	-2615
Ƶʣ	-2616
Ʒɻ	-2617
ƹx	-2618
ƺţ	-2619
ƿɿ	-2620
ǰʫ	-2621
ǵȲ	-2622
Ƿȱ	-2623
Ǹɰ	-2624
ǹǶ	-2625
ǻƻ	-2626
ȳô	-2627
ȳƳ	-2628
ɦð	-2629
ɫȫ	-2630
ɰŪ	-2631
ɰȴ	-2632
ɱǰ	-2633
ɲû	-2634
ɲţ	-2635
ɳŪ	-2636
ɳɵ	-2637
ɵó	-2638
ɵü	-2639
ɵĵ	-2640
ɵĶ	-2641
ɵĺ	-2642
ɵľ	-2643
ɵƣ	-2644
ɶɣ	-2645
ɷţ	-2646
ɹø	-2647
ɹģ	-2648
ɹǣ	-2649
ɹȥ	-2650
ɹɹ	-2651
ɺã	-2652
ɺò	-2653
ɺû	-2654
ɺÿ	-2655
ɻá	-2656
ɻã	-2657
ɻô	-2658
ɻø	-2659
ɻü	-2660
ɻý	-2661
ɻĻ	-2662
ɻơ	-2663
ɼɣ	-2664
ɽħ	-2665
ɽĪ	-2666
ɽš	-2667
ɽǣ	-2668
ɽɫ	-2669
ɽɮ	-2670
ɽʦ	-2671
ɽʨ	-2672
ɽ̡	-2673
ɽ̷	-2674
ɽͤ	-2675
ɽͨ	-2676
ɾų	-2677
ɾƷ	-2678
ɾȰ	-2679
ɾȵ	-2680
ɿͣ	-2681
ʁƫ	-2682
ʁʦ	-2683
ʤǧ	-2684
ʥû	-2685
ʥŮ	-2686
ʥƫ	-2687
ʥǧ	-2688
ʥǷ	-2689
ʥʮ	-2690
ʥ̥	-2691
ʦĪ	-2692
ʦȡ	-2693
ʦɨ	-2694
ʦʩ	-2695
ʨģ	-2696
ʩr	-2697
ʫ̳	-2698
ʬƮ	-2699
Sȭ	-2700
js	-2701
rx	-2702
vʦ	-2703
òð	-2704
õȺ	-2705
ûȥ	-2706
üL	-2707
þų	-2708
ĸǣ	-2709
ĸɷ	-2710
ţƤ	-2711
ţ̧	-2712
Ūǿ	-2713
Ʈɦ	-2714
Ƶô	-2715
ƽš	-2716
ǡǡ	-2717
Ǯȥ	-2718
ǰɦ	-2719
Ǵȱ	-2720
ǵõ	-2721
ǵý	-2722
Ǻý	-2723
Ǽǵ	-2724
ǽƻ	-2725
ȥʢ	-2726
ȴɱ	-2727
ȸǣ	-2728
ȸɣ	-2729
Ȼ̾	-2730
ȿȶ	-2731
ȿɼ	-2732
ɲx	-2733
ɴƮ	-2734
ɻö	-2735
ɻʦ	-2736
ɽȺ	-2737
ʬɽ	-2738
ʮȫ	-2739
ʯȪ	-2740
ʯʯ	-2741
ʹ˰	-2742
ʹ̡	-2743
ʹ򣬵	-2744
ʺ󣬰	-2745
ʻʺ	-2746
ʾ�	-2747
ʿ˵	-2748
˧˵	-2749
˩�	-2750
ˬˬ	-2751
ˮ,	-2752
˰˿	-2753
˳·	-2754
˵͹	-2755
˽ͨ	-2756
˿˰	-2757
̤Ϊ	-2758
̥ǰ	-2759
̥ҩ	-2760
̦�	-2761
̧һ	-2762
̨Ϊ	-2763
̨�	-2764
̩֮	-2765
̫Ϣ	-2766
̫Ԫ	-2767
̰ͼ	-2768
̰֮	-2769
̰�	-2770
̱�	-2771
̳Ͽ	-2772
̴ľ	-2773
̴Խ	-2774
̵Ĵ	-2775
̵ļ	-2776
̶˵	-2777
̷ŵ	-2778
̷ֱ	-2779
̸ǣ	-2780
̸Ц	-2781
̸߹	-2782
̹s	-2783
̻1	-2784
̻ƻ	-2785
̻ʺ	-2786
̼ݣ	-2787
̿ɡ	-2788
̿ɣ	-2789
̿м	-2790
֣̿	-2791
ͣ·	-2792
ͣϢ	-2793
ͤס	-2794
̨ͥ	-2795
ͦȻ	-2796
ͦ˯	-2797
ͦͦ	-2798
ֱͦ	-2799
jŰ	-2800
jŵ	-2801
sͭ	-2802
·ͬ	-2803
óų	-2804
øɣ	-2805
ûɻ	-2806
ħɦ	-2807
ħͣ	-2808
īȾ	-2809
ĬȻ	-2810
ĵİ	-2811
ĶǸ	-2812
ľȥ	-2813
ţȥ	-2814
Ůȥ	-2815
ŰŽ	-2816
űǴ	-2817
ųŴ	-2818
Ŵx	-2819
ŵķ	-2820
ŻƲ	-2821
Žź	-2822
ƪɢ	-2823
Ʈɽ	-2824
Ƶķ	-2825
Ʒɣ	-2826
ƼƷ	-2827
ǧx	-2828
ǵö	-2829
ǵĶ	-2830
ǵĹ	-2831
ǵĻ	-2832
ǺǺ	-2833
ǺǼ	-2834
ǻh	-2835
ȥǬ	-2836
ȵú	-2837
Ⱦɳ	-2838
ɢɥ	-2839
ɦʥ	-2840
ɮı	-2841
ɰʯ	-2842
ɳʯ	-2843
ɷš	-2844
ɻĺ	-2845
ɻȴ	-2846
ɽÿ	-2847
ʥɦ	-2848
ʯȾ	-2849
ʹ˽	-2850
̱仯	-2851
̳γ	-2852
ͨû	-2853
ͨŪ	-2854
ͨɽ	-2855
ͨͨ	-2856
ͨ͸	-2857
ͨδ	-2858
ͬɽ	-2859
̸ͬ	-2860
ͬС	-2861
ͬһ	-2862
֤ͬ	-2863
ͭǮ	-2864
Ͳμ	-2865
ͳ̡	-2866
͵Ͱ	-2867
Ͷ̴	-2868
Ͷε	-2869
Ͷϡ	-2870
ͷ̧	-2871
ͷͷ	-2872
ͷͻ	-2873
ͷΧ	-2874
ͷβ	-2875
ͷε	-2876
ͷϼ	-2877
͹�	-2878
ͻ͡	-2879
ͻͭ	-2880
ͼ͡	-2881
ͽ̶	-2882
ͽ̽	-2883
ͽΧ	-2884
ͿͿ	-2885
Ϳϸ	-2886
Θͷ	-2887
΢¶	-2888
΢�	-2889
Ϊ̳	-2890
Ϊ͵	-2891
Ϊͽ	-2892
Ϊς	-2893
ί͵	-2894
ίί	-2895
βμ	-2896
δΘ	-2897
δκ	-2898
δϸ	-2899
ŪȦ	-2900
ŶĶ	-2901
ǹô	-2902
Ǻó	-2903
Ǻü	-2904
ǼȽ	-2905
ȡʥ	-2906
ȳƺ	-2907
ȷŻ	-2908
Ȼɮ	-2909
ɲæ	-2910
ɵķ	-2911
ʯǬ	-2912
ͣЩ	-2913
ͬ˧	-2914
εε	-2915
ιε	-2916
ιι	-2917
κα	-2918
κβ	-2919
κγ	-2920
κθ	-2921
κι	-2922
κκ	-2923
κξ	-2924
λ̫	-2925
λΣ	-2926
λε	-2927
μ̫	-2928
νη	-2929
ξͰ	-2930
ξͳ	-2931
ξͼ	-2932
ο͵	-2933
οϽ	-2934
ς̿	-2935
ςͨ	-2936
Ϻη	-2937
ϺϷ	-2938
ϻϻ	-2939
Ͻ̰	-2940
ϽΡ	-2941
Ͼͱ	-2942
ϾͶ	-2943
Ͼٰ	-2944
ϿϷ	-2945
Сͭ	-2946
Сѹ	-2947
СѾ	-2948
ХѰ	-2949
ЦҲ	-2950
Щͬ	-2951
ЩТ	-2952
Щҩ	-2953
ЩҪ	-2954
ЩҰ	-2955
ЩҲ	-2956
ЩӰ	-2957
ЬС	-2958
Ьһ	-2959
а̥	-2960
аҧ	-2961
аҪ	-2962
вͣ	-2963
г̡	-2964
ге	-2965
гҲ	-2966
дͣ	-2967
дС	-2968
дһ	-2969
иС	-2970
йң	-2971
йԪ	-2972
кӰ	-2973
лк	-2974
лҲ	-2975
лԡ	-2976
мѿ	-2977
мҶ	-2978
мҷ	-2979
мҺ	-2980
мһ	-2981
нУ	-2982
нӴ	-2983
п͡	-2984
ѡЩ	-2985
ѥһ	-2986
ѧһ	-2987
ѩЬ	-2988
ѩѹ	-2989
ѪҲ	-2990
ѬѬ	-2991
Ѱͭ	-2992
Ѱѣ	-2993
Ѱѩ	-2994
Ѱѹ	-2995
Ѱҩ	-2996
ѰҰ	-2997
Ѳҹ	-2998
ѲӪ	-2999
ѳҷ	-3000
ѳӣ	-3001
ѳԣ	-3002
ѵУ	-3003
ѷѷ	-3004
ѹѩ	-3005
ѹѹ	-3006
ѹҲ	-3007
ѺѺ	-3008
ѼҸ	-3009
ѽл	-3010
ѽѽ	-3011
ѽӹ	-3012
Ѿй	-3013
ѿ͡	-3014
ҡҹ	-3015
ҡӰ	-3016
ҨЩ	-3017
ҩҽ	-3018
Ҫ̰	-3019
Ҫͬ	-3020
Ҫҡ	-3021
Ҫҧ	-3022
ҪӮ	-3023
ҫӳ	-3024
үѽ	-3025
үҪ	-3026
Ұѱ	-3027
ҰѾ	-3028
Ұң	-3029
Ұӹ	-3030
Ҳ̤	-3031
ҲС	-3032
ҲЯ	-3033
Ҳл	-3034
ҲѰ	-3035
Ҳң	-3036
ҲҲ	-3037
Ҳҵ	-3038
Ҳҽ	-3039
ҲӲ	-3040
Ҵ̣	-3041
Ҵң	-3042
Ҵӳ	-3043
ҴӴ	-3044
ҴӸ	-3045
ҵв	-3046
ҶѰ	-3047
ҷ͡	-3048
Ҹд	-3049
ҹ̰	-3050
ҹС	-3051
ҹѲ	-3052
ҹѸ	-3053
ҹҲ	-3054
Һһ	-3055
һ̳	-3056
һ̽	-3057
һͣ	-3058
һͯ	-3059
һѲ	-3060
һҧ	-3061
һҪ	-3062
һҽ	-3063
һԣ	-3064
Ҽѣ	-3065
Ҽұ	-3066
Ҽҳ	-3067
ҼҴ	-3068
ҼҶ	-3069
Ҽҷ	-3070
Ҽҹ	-3071
ҼҺ	-3072
ҼҼ	-3073
Ҽҽ	-3074
ҼҾ	-3075
ҽ̵	-3076
ҽ̹	-3077
ҽ̾	-3078
ҽе	-3079
ҽк	-3080
ҽҩ	-3081
ҽһ	-3082
ҽҽ	-3083
ҽӹ	-3084
Ҿн	-3085
ҾӺ	-3086
Ҿӻ	-3087
ҿҰ	-3088
ӦЩ	-3089
ӰѴ	-3090
ӰѶ	-3091
Ӱѹ	-3092
ӰҲ	-3093
Ӳд	-3094
Ӳо	-3095
Ӳҵ	-3096
ӲӲ	-3097
ӳӳ	-3098
ӳԣ	-3099
ӽ̣	-3100
ӽУ	-3101
ӽӱ	-3102
ԨҲ	-3103
ԫԫ	-3104
ԭҪ	-3105
ԭҲ	-3106
԰˸	-3107
Ալ	-3108
ԳԲ	-3109
ԳԾ	-3110
ԴԷ	-3111
ԴԻ	-3112
ԶԲ	-3113
ԶԳ	-3114
ԶԾ	-3115
ԹԹ	-3116
Թա	-3117
Ի͡	-3118
Իͣ	-3119
ԻԽ	-3120
էէ	-3121
խխ	-3122
ճԲ	-3123
ճԺ	-3124
ճտ	-3125
շԸ	-3126
ոչ	-3127
վԶ	-3128
տպ	-3129
֦֦	-3130
ֹ֪	-3131
֪ס	-3132
ּ֮	-3133
֮־	-3134
֮׳	-3135
ְף	-3136
ֱ̺	-3137
ֱ֮	-3138
ֱֳ	-3139
ֳֵ	-3140
ֳָ	-3141
ִ̡	-3142
ִַ	-3143
ִֺ	-3144
ֵͣ	-3145
ֵ֮	-3146
ֵֵ	-3147
ֶ̣	-3148
ַ֣	-3149
ֶַ	-3150
ֹ֪	-3151
ֲֹ	-3152
ֻײ	-3153
̷ֽ	-3154
ֽ̽	-3155
ֵֽ	-3156
ֿ֣	-3157
ֳֿ	-3158
ִֿ	-3159
ֿ־	-3160
ס֮	-3161
סֻ	-3162
קש	-3163
רײ	-3164
װװ	-3165
׶�	-3166
׷׵	-3167
׷׾	-3168
׸�	-3169
׺׼	-3170
׽׽	-3171
׾�	-3172
׿ͣ	-3173
׿�	-3174
تج	-3175
تخ	-3176
تي	-3177
جح	-3178
خى	-3179
ذݱ	-3180
ذݷ	-3181
ذݼ	-3182
زأ	-3183
زز	-3184
زؾ	-3185
زݶ	-3186
س̣	-3187
سح	-3188
شͣ	-3189
شء	-3190
شج	-3191
شص	-3192
شض	-3193
شػ	-3194
صص	-3195
صػ	-3196
صݽ	-3197
ضج	-3198
طح	-3199
ظم	-3200
ع̣	-3201
عط	-3202
ع٣	-3203
عټ	-3204
عۣ	-3205
عۿ	-3206
غڳ	-3207
ػؽ	-3208
ؾٱ	-3209
ؿر	-3210
ؿؿ	-3211
مح	-3212
يڣ	-3213
ٰʦ	-3214
ٰѼ	-3215
ٰݡ	-3216
ٰݱ	-3217
ٱز	-3218
ٱٰ	-3219
ٲݻ	-3220
ٳ̣	-3221
ٳݣ	-3222
ٳݱ	-3223
ٳݶ	-3224
ٹ٣	-3225
ٹٳ	-3226
ٻء	-3227
پٱ	-3228
پٴ	-3229
پ۰	-3230
ٿر	-3231
ٿڣ	-3232
ٿڿ	-3233
ٿݶ	-3234
ڰٽ	-3235
ڰڲ	-3236
ڰڶ	-3237
ڰݱ	-3238
ڱڵ	-3239
ڲض	-3240
ڲط	-3241
ڲ١	-3242
ڲݡ	-3243
ڲݶ	-3244
ڲ࣬	-3245
ڵؿ	-3246
ڷض	-3247
ڹ٣	-3248
ڹٰ	-3249
ڹٱ	-3250
ڹٽ	-3251
ڹ۲	-3252
ںڴ	-3253
ڻش	-3254
ڻؼ	-3255
ڻؿ	-3256
ڼݵ	-3257
۰ػ	-3258
۹ۣ	-3259
ۿڴ	-3260
ܰܰ	-3261
ܷܷ	-3262
ܺ͡	-3263
ܼܿ	-3264
̱ܽ	-3265
ݰݱ	-3266
ݲݷ	-3267
ݹ٣	-3268
ݹٹ	-3269
ݹٿ	-3270
ݻر	-3271
ݻس	-3272
ݼݳ	-3273
ݽ̲	-3274
ݽ̴	-3275
ݾٰ	-3276
ޡͯ	-3277
޳�	-3278
޴߿	-3279
޺޵	-3280
޽�	-3281
޾�	-3282
޿�	-3283
ߥߥ	-3284
߰ߡ	-3285
߰ߣ	-3286
ߴ߱	-3287
߸ߣ	-3288
߸߰	-3289
߸߷	-3290
߸ߺ	-3291
߽̰	-3292
߽⿪	-3293
߿ࡣ	-3294
ࡣ�	-3295
᣿ʹ	-3296
▁;	-3297
▁a	-3298
▁l	-3299
▁°	-3300
▁¶	-3301
▁á	-3302
▁â	-3303
▁é	-3304
▁î	-3305
▁ö	-3306
▁÷	-3307
▁ĥ	-3308
▁Ħ	-3309
▁Ķ	-3310
▁ļ	-3311
▁Ť	-3312
▁ŧ	-3313
▁Ŭ	-3314
▁Ų	-3315
▁ż	-3316
▁ǡ	-3317
▁ɣ	-3318
▁ɥ	-3319
▁ɴ	-3320
▁ɸ	-3321
▁ʾ	-3322
▁˥	-3323
▁˳	-3324
▁˷	-3325
▁˿	-3326
▁̾	-3327
▁ͥ	-3328
▁ͦ	-3329
▁͸	-3330
▁ͼ	-3331
▁Ρ	-3332
▁Υ	-3333
▁ί	-3334
▁ε	-3335
▁κ	-3336
▁ν	-3337
▁ϡ	-3338
▁ϥ	-3339
▁Ϭ	-3340
▁ϼ	-3341
▁У	-3342
▁Х	-3343
▁Я	-3344
▁г	-3345
▁ж	-3346
▁з	-3347
▁Ѩ	-3348
▁Ѳ	-3349
▁ѻ	-3350
▁Ѿ	-3351
▁ѿ	-3352
▁ҫ	-3353
▁ҷ	-3354
▁Һ	-3355
▁ӡ	-3356
▁Ӫ	-3357
▁Ӳ	-3358
▁ӻ	-3359
▁ԩ	-3360
▁Դ	-3361
▁Է	-3362
▁Խ	-3363
▁Ծ	-3364
▁թ	-3365
▁խ	-3366
▁մ	-3367
▁ն	-3368
▁պ	-3369
▁տ	-3370
▁֯	-3371
▁ֲ	-3372
▁ֵ	-3373
▁־	-3374
▁ף	-3375
▁ץ	-3376
▁צ	-3377
▁׬	-3378
▁׮	-3379
▁ױ	-3380
▁׹	-3381
▁׼	-3382
▁ش	-3383
▁ڿ	-3384
▁ݺ	-3385
▁޵	-3386
▁ߥ	-3387
▁߶	-3388
⣬̰	-3389
⣬ͬ	-3390
ⷬѲ	-3391
ⷬҲ	-3392
⿪�	-3393
㣬ͨ	-3394
㲻ͬ	-3395
棬̰	-3396
治ͨ	-3397
治ͬ	-3398
磬̤	-3399
磬̫	-3400
磬ͦ	-3401
磬ͬ	-3402
衣ͣ	-3403
裬̤	-3404
鿱�	-3405
̫꣬	-3406
꣬ͬ	-3407
겻ͬ	-3408
볯͢	-3409
졣ͨ	-3410
죬ͨ	-3411
ˮ	-3412
ͬ	-3413
԰	-3414
˥	-3415
׿	-3416
�ʾ	-3417
�󣬾	-3418
�󺣣	-3419
𣬽̣	-3420
𣬾㵽	-3421
񣡡�	-3422
񣬲�	-3423
򵹣�	-3424
󣬷�	-3425
󣬾�	-3426
󾭣�	-3427
2�˼	-3428
;�ʿ	-3429
DZĪ	-3430
DZȷ	-3431
Dzo	-3432
Dzű	-3433
DzŴ	-3434
Dzŵ	-3435
DzŹ	-3436
DzŽ	-3437
Dzƶ	-3438
Dzʮ	-3439
dzô	-3440
dzŴ	-3441
dzǶ	-3442
ijƺ	-3443
ijǣ	-3444
jôr	-3445
jôĺ	-3446
jôŧ	-3447
jôŪ	-3448
jôɫ	-3449
jôɮ	-3450
jôʥ	-3451
jôʦ	-3452
rɸô	-3453
xxɦ	-3454
£�˼	-3455
£�̧	-3456
©�»	-3457
«�׶	-3458
¬��	-3459
¶�಻	-3460
·�£	-3461
·�˯	-3462
·�̣	-3463
·�׶	-3464
·�޴	-3465
·�𾦣	-3466
»�԰	-3467
»��	-3468
æȡȦ	-3469
ëɭɭ	-3470
õDZ	-3471
õIJ	-3472
÷�׹	-3473
øɸɾ	-3474
úúã	-3475
ÿÿh	-3476
ÿÿȰ	-3477
ĥjô	-3478
ĵIJ	-3479
ĵij	-3480
ĺõģ	-3481
ľĸħ	-3482
ľĸͬ	-3483
ľɭɭ	-3484
ŨĮĮ	-3485
Ūjô	-3486
Ůͯæ	-3487
ųdz	-3488
ųŵģ	-3489
ŵIJ	-3490
ŵøɾ	-3491
ŵùȿ	-3492
ŵĵǰ	-3493
ŵĻţ	-3494
Ƥͤǰ	-3495
ƥëƬ	-3496
Ʋȴʦ	-3497
ƴDz	-3498
ƵƵɨ	-3499
ýŵǿ	-3500
Ĵoţ	-3501
ƶɮż	-3502
ƶɮȡ	-3503
ƺǺǣ	-3504
ƻrɽ	-3505
ǰŬL	-3506
ǴƵġ	-3507
ǵĺù	-3508
ǷŵĻ	-3509
Ǻõģ	-3510
Ǻǵĵ	-3511
Ǿȵú	-3512
ȡʮƥ	-3513
ȡ̫ƽ	-3514
ȥjô	-3515
ȥĪæ	-3516
ȥɨɨ	-3517
ȥɳ̲	-3518
ȫȻû	-3519
ȴĪȥ	-3520
ȴĬĬ	-3521
ȴȥȡ	-3522
Ⱥȵģ	-3523
Ⱥɽţ	-3524
ȻûǮ	-3525
ȻĮĮ	-3526
ȿɺÿ	-3527
ɦͨɨ	-3528
ɫdz	-3529
ɫɫƽ	-3530
ɮǰȥ	-3531
ɮȥȡ	-3532
ɮɢȥ	-3533
ɮɳɮ	-3534
ɮͬȥ	-3535
ɳɮs	-3536
ɳɮæ	-3537
ɳɮȥ	-3538
ɳɮɻ	-3539
ɳɮͨ	-3540
ɳɮͬ	-3541
ɳɵL	-3542
ɵİŽ	-3543
ɵĺô	-3544
ɸĺš	-3545
ɹõĶ	-3546
ɼȼá	-3547
ɽDz	-3548
ɽƽƽ	-3549
ɽȭʯ	-3550
ɽɫɫ	-3551
ɿɵı	-3552
ʁħ̸	-3553
ʥƮƮ	-3554
ʥȥɦ	-3555
ʥȴʩ	-3556
ʥɮĪ	-3557
ʥɮȴ	-3558
ʥɮʦ	-3559
ʯɭɭ	-3560
ʹ˽�	-3561
ʹ�̹	-3562
ʹ�ͣ	-3563
ʺ�[	-3564
ʻ��	-3565
ʽ�ˮ	-3566
ʽ��	-3567
ʿ�߽	-3568
˥��	-3569
˧ˮ�	-3570
˧ͬ�	-3571
˩�	-3572
˭�˶	-3573
ˮ�	-3574
ˮ�	-3575
˯�¡	-3576
˯�£	-3577
˰˽�	-3578
˱�ˮ	-3579
˴˹�	-3580
˴�˵	-3581
˵˳�	-3582
˵͹1	-3583
˵�2	-3584
˵�ʿ	-3585
˶�˵	-3586
˸�̧	-3587
˹�·	-3588
˻ʺ󣬰	-3589
˻�˵	-3590
˼�˵	-3591
˼�˽	-3592
˼�޼	-3593
˽�˿	-3594
˽�ͣ	-3595
˾͸�	-3596
˿�̶	-3597
̦��	-3598
̧ͷϸ	-3599
̨�¡	-3600
̨�̵	-3601
̫ƽɦ	-3602
̫ɽǧ	-3603
̫�׽	-3604
̳γε	-3605
̳��	-3606
̵İŽ	-3607
̷�	-3608
̹�»	-3609
̹��	-3610
̽Կգ	-3611
͢ҲҪ	-3612
͢��	-3613
ͤ�	-3614
ͤ��	-3615
ͦͦվ	-3616
ͨͨһ	-3617
ͨ�޵	-3618
ͬɳɮ	-3619
ͬ�򵹣	-3620
ͷΡΡ	-3621
ͷϸϸ	-3622
͸�ˮ	-3623
͸�̿	-3624
κξͿ	-3625
ξͶε	-3626
ϻ̳Ͽ	-3627
СУһ	-3628
СһС	-3629
ЯһС	-3630
ѰһѰ	-3631
ѹҲѹ	-3632
ҩһӦ	-3633
үүӭ	-3634
Ҳ̤һ	-3635
ҲѰһ	-3636
Ҳҡҡ	-3637
Ҳһһ	-3638
ҹһӵ	-3639
һЦЦ	-3640
һҹҲ	-3641
һһд	-3642
һһл	-3643
ӭһӭ	-3644
ԫӰӰ	-3645
԰˵�	-3646
԰�￴	-3647
ֳָָ	-3648
׮�£	-3649
׮�°	-3650
׮�¶	-3651
ׯ̽�	-3652
ׯ�˳	-3653
ׯ�˼	-3654
ױ̨֮	-3655
׶�̫	-3656
׸��	-3657
׹��	-3658
׺��	-3659
׽�˹	-3660
׾�޶	-3661
اٴػ	-3662
تخي	-3663
تمي	-3664
جحي	-3665
راٴ	-3666
سخى	-3667
سوٴ	-3668
شمخ	-3669
صػع	-3670
صلى	-3671
عمم	-3672
وٴ̷	-3673
وٴ࣬	-3674
يٴٳ	-3675
ټاٴ	-3676
ڹيٴ	-3677
޵��	-3678
޸��	-3679
޺޵�	-3680
޺��	-3681
޻��	-3682
޽�ˮ	-3683
޾�̳	-3684
޾��	-3685
ߺߺߵ	-3686
߽�ˮ	-3687
߾�ʹ	-3688
߾��	-3689
▁Dz	-3690
▁xx	-3691
▁£�	-3692
▁¥̨	-3693
▁¥�	-3694
▁»�	-3695
▁ãȻ	-3696
▁ëƬ	-3697
▁ôû	-3698
▁ôģ	-3699
▁ôľ	-3700
▁ôʯ	-3701
▁Ħȭ	-3702
▁ţħ	-3703
▁ţʮ	-3704
▁Ůͯ	-3705
▁ůñ	-3706
▁ǣţ	-3707
▁ǧȺ	-3708
▁ǧʥ	-3709
▁ǰǰ	-3710
▁ǽȥ	-3711
▁ȥx	-3712
▁ȥô	-3713
▁ȥǰ	-3714
▁ȥȥ	-3715
▁ȥɦ	-3716
▁ȥʤ	-3717
▁ȴĪ	-3718
▁ȴȥ	-3719
▁ȴɨ	-3720
▁ȴʮ	-3721
▁ȹƫ	-3722
▁Ⱥħ	-3723
▁ȽȽ	-3724
▁ɫɫ	-3725
▁ɮñ	-3726
▁ɮǰ	-3727
▁ɴͤ	-3728
▁ɽǰ	-3729
▁ɽȥ	-3730
▁ɽʮ	-3731
▁ɽʯ	-3732
▁ʦʨ	-3733
▁ʬħ	-3734
▁ʮĶ	-3735
▁ʮƥ	-3736
▁ʹʹ	-3737
▁ʿ�	-3738
▁˧�	-3739
▁˫˫	-3740
▁ˮˮ	-3741
▁˯˯	-3742
▁́˳	-3743
▁́˼	-3744
▁́ζ	-3745
▁́λ	-3746
▁́ӻ	-3747
▁́ӿ	-3748
▁́档	-3749
▁́棬	-3750
▁̄ľ	-3751
▁̄ů	-3752
▁̄ƿ	-3753
▁̤һ	-3754
▁̤�	-3755
▁̥Ȫ	-3756
▁̥�	-3757
▁̧ɼ	-3758
▁ֲ̧	-3759
▁ֵ̧	-3760
▁̧ߡ	-3761
▁̧ߣ	-3762
▁̨�	-3763
▁̩ɽ	-3764
▁̩֮	-3765
▁̫ɽ	-3766
▁̫ʦ	-3767
▁̫ҽ	-3768
▁̲ǰ	-3769
▁̲֮	-3770
▁̸һ	-3771
▁ͅá	-3772
▁ͅǰ	-3773
▁ͅͱ	-3774
▁ͅ޵	-3775
▁ͣס	-3776
▁ͤ�	-3777
▁ͬϯ	-3778
▁ͬЯ	-3779
▁ͬס	-3780
▁ͭƿ	-3781
▁ͭ�	-3782
▁ͯ�	-3783
▁Ͷ̥	-3784
▁΢΢	-3785
▁΢�	-3786
▁λς	-3787
▁μμ	-3788
▁ςς	-3789
▁СУ	-3790
▁ЩЩ	-3791
▁Ѱһ	-3792
▁ѹ̫	-3793
▁ҡҡ	-3794
▁Ҫһ	-3795
▁үѽ	-3796
▁Ҳͨ	-3797
▁Ҳѧ	-3798
▁һͬ	-3799
▁һӵ	-3800
▁԰�	-3801
▁֦֦	-3802
▁֪֮	-3803
▁֤֮	-3804
▁ֱ̧	-3805
▁ָֻ	-3806
▁ץס	-3807
▁קק	-3808
▁רר	-3809
▁׮�	-3810
▁׷�	-3811
▁׸�	-3812
▁׹�	-3813
▁׼�	-3814
▁׽�	-3815
▁߸̫	-3816
▁㤾壬	-3817
▁�;	-3818
▁�±	-3819
▁�¶	-3820
▁�·	-3821
▁�ʺ	-3822
▁�ʻ	-3823
▁�ʽ	-3824
▁�ʾ	-3825
▁�˿	-3826
▁�̡	-3827
▁�̹	-3828
▁�̺	-3829
▁�׼	-3830
▁�޶	-3831
▁�޽	-3832
▁�᲻	-3833
▁�⹫	-3834
▁�⻹	-3835
▁�	-3836
▁�	-3837
▁�	-3838
▁�	-3839
▁�񡣡	-3840
▁�񣬶	-3841
▁�񣿡	-3842
▁�򣡡	-3843
▁�󣬰	-3844
▁�󣬷	-3845
▁�󣬸	-3846
▁�󣬿	-3847
▁�󺣣	-3848
⹫�˴	-3849
�˼	-3850
�̾	-3851
�	-3852
�	-3853
�ʼ	-3854
�˽	-3855
;�	-3856
�̱	-3857
��	-3858
￴�˵	-3859
�,�	-3860
�¥ͤ	-3861
�§�	-3862
�¬�	-3863
�·ͨ	-3864
�ʹ̡	-3865
�ʹ	-3866
�ʺ󣬽	-3867
�ˬˬ	-3868
�˭˵	-3869
�ˮͤ	-3870
�ˮͨ	-3871
�˰˸	-3872
�˰˾	-3873
�˳	-3874
�˴˳	-3875
�˴˴	-3876
�˴˻	-3877
�˵˴	-3878
�˻ʺ	-3879
�̥�	-3880
�̦޺	-3881
�̰˯	-3882
�̲±	-3883
�̼�	-3884
�ͣͣ	-3885
�ͨ˵	-3886
�΢�	-3887
�԰˽	-3888
�׮�	-3889
�ׯ1	-3890
�׶񣬲	-3891
�׶񣬶	-3892
�׷׸	-3893
�׹̡	-3894
�׻׻	-3895
�׼�	-3896
�׽׽	-3897
�׿3	-3898
�޲�	-3899
�޵׵	-3900
�޶˻	-3901
�޺�	-3902
�޾�	-3903
�޿˶	-3904
�޿͹	-3905
�޿�	-3906
�߽̣	-3907
�߾ٰ	-3908
��	-3909
��	-3910
�ˮ	-3911
��	-3912
��	-3913
��	-3914
��	-3915
�¶	-3916
�ʹ	-3917
�˵	-3918
��	-3919
��	-3920
��;	-3921
��̱	-3922
��᣿	-3923
��񣬰	-3924
��񣬶	-3925
��򡣡	-3926
��󣬰	-3927
��󣬶	-3928
��󣬸	-3929
�񣡡�	-3930
�񣬰�	-3931
�񣬶�	-3932
�񣬽�	-3933
�򡣡�	-3934
�򣡡�	-3935
�򾻣�	-3936
�󡣡�	-3937
�󣬷�	-3938
�󣬻�	-3939
�󣬿�	-3940
𾦣�ͭ	-3941
񣬰��	-3942
񣬶�÷	-3943
񣬸��	-3944
󡣡��	-3945
󣬱��	-3946
󣬻��	-3947
󣬽��	-3948
󺣣��	-3949
󾭡��	-3950
1⁄2󣬷	-3951
1��˵	-3952
1��׺	-3953
2��񣿡	-3954
Dzźó	-3955
Dzƶɮ	-3956
Dz̩ɽ	-3957
dzDZ	-3958
jôţƤ	-3959
£��˲	-3960
£��˵	-3961
¥��¥	-3962
§��·	-3963
±���	-3964
·;��	-3965
·�̡�	-3966
·��	-3967
·��,	-3968
·��	-3969
¿��˼	-3970
ððɻɻ	-3971
÷��ʹ	-3972
÷��˿	-3973
÷��̣	-3974
úõij	-3975
üɽDz	-3976
ĪŤĪŤ	-3977
ƼƷdz	-3978
ǵijǣ	-3979
ȴȡjô	-3980
ɳɮȴȥ	-3981
ɳɵIJ	-3982
ɽŵĵǰ	-3983
ʥɮȥȡ	-3984
ʹ˸��	-3985
ʹ��	-3986
ʹ��ʹ	-3987
ʹ��˴	-3988
ʹ��̰	-3989
ʻʺ��	-3990
ʽ���	-3991
ʾ��·	-3992
ʾ��ʾ	-3993
ʿͬ��	-3994
˩�°�	-3995
˩��ͣ	-3996
˭�˲�	-3997
˭�ͣ�	-3998
˭��˭	-3999
ˮ�£�	-4000
ˮ�߿�	-4001
ˮ��̶	-4002
˯�¡�	-4003
˰˰��	-4004
˰׻��	-4005
˰��	-4006
˱��󣬰	-4007
˱��󣬷	-4008
˱��󣬽	-4009
˳·��	-4010
˳��¡	-4011
˳��·	-4012
˴˻��	-4013
˴�·�	-4014
˴��£	-4015
˵˵�޷	-4016
˵�˻�	-4017
˵��1	-4018
˵��¥	-4019
˵��«	-4020
˵��ʹ	-4021
˵��ˮ	-4022
˵��˱	-4023
˵��󣬻	-4024
˵�򣬵�	-4025
˶��˺	-4026
˷��̣	-4027
˷��	-4028
˸˸��	-4029
˸��˷	-4030
˹��£	-4031
˹��	-4032
˹��	-4033
˼��£	-4034
˼��·	-4035
˼��˼	-4036
˼��಻	-4037
˽�̧�	-4038
˽��ʹ	-4039
˽��󾪵	-4040
˾��£	-4041
˾��޵	-4042
˾��񡣡	-4043
˿��˵	-4044
˿���	-4045
̤��˿	-4046
̥���	-4047
̧��̧	-4048
̩ɽDz	-4049
̫�׽�	-4050
̫�׿�	-4051
̫��ʹ	-4052
̲��̷	-4053
̲��	-4054
̳��̺	-4055
̴���	-4056
̵��̱	-4057
̶��	-4058
̶���	-4059
̼���	-4060
ͣ�͸�	-4061
ͤ�£�	-4062
ͨ��ͨ	-4063
ͬ�¶�	-4064
ͬ�˰�	-4065
ͬ��ͨ	-4066
͸�˵�	-4067
͹˲��	-4068
΢¶��	-4069
΢΢��	-4070
Цӯӯһ	-4071
԰˽�˵	-4072
԰�ʹ�	-4073
԰��	-4074
԰��£	-4075
԰��޲	-4076
׹�ʹ�	-4077
׹��ˮ	-4078
׹��ͣ	-4079
׼��׶	-4080
׼���	-4081
׽׽��	-4082
׽�˰˽	-4083
׽��˩	-4084
׾��޻	-4085
׾���	-4086
صلعم	-4087
޲��ͣ	-4088
޲���	-4089
޳��˵	-4090
޴���	-4091
޵׵��	-4092
޷��ͣ	-4093
�	-4094
▁	-4095
һ	-4096
ȥ	-4097
Ҳ	-4098
x	-4099
ɮ	-4100
˵	-4101
ʦ	-4102
ֻ	-4103
֮	-4104
ͷ	-4105
ߵ	-4106
˽	-4107
ɽ	-4108
ȴ	-4109
ǰ	-4110
ô	-4111
С	-4112
ģ	-4113
ʥ	-4114
ɦ	-4115
·	-4116
У	-4117
£	-4118
Ҫ	-4119
ס	-4120
l	-4121
֪	-4122
ɳ	-4123
ţ	-4124
ʮ	-4125
֣	-4126
ǹ	-4127
ϣ	-4128
ߣ	-4129
	-4130
ˮ	-4131
Ц	-4132
ӣ	-4133
Щ	-4134
գ	-4135
ã	-4136
ǣ	-4137
ԣ	-4138
ȡ	-4139
Ȼ	-4140
Ϊ	-4141
ͽ	-4142
ħ	-4143
ʹ	-4144
Σ	-4145
ҵ	-4146
ң	-4147
Ǹ	-4148
ֵ	-4149
Ī	-4150
ƣ	-4151
䣬	-4152
ε	-4153
z	-4154
ŵ	-4155
ɻ	-4156
ς	-4157
j	-4158
Ů	-4159
ڣ	-4160
˼	-4161
û	-4162
磬	-4163
ص	-4164
е	-4165
أ	-4166
ԭ	-4167
ǧ	-4168
ү	-4169
ܣ	-4170
Ѱ	-4171
D	-4172
л	-4173
Ǵ	-4174
⣬	-4175
ս	-4176
ҡ	-4177
ͬ	-4178
ף	-4179
Ǻ	-4180
	-4181
̫	-4182
ա	-4183
٣	-4184
ֱ	-4185
㣬	-4186
ҹ	-4187
ּ	-4188
ǡ	-4189
ľ	-4190
ת	-4191
¡	-4192
ɣ	-4193
1	-4194
d	-4195
δ	-4196
ϸ	-4197
ĸ	-4198
棬	-4199
ȣ	-4200
а	-4201
ѣ	-4202
ġ	-4203
ǵ	-4204
ֽ	-4205
ߡ	-4206
ʯ	-4207
ի	-4208
Ƕ	-4209
ɱ	-4210
Զ	-4211
ٴ	-4212
⡣	-4213
ӡ	-4214
ͣ	-4215
ͨ	-4216
̣	-4217
ۣ	-4218
죬	-4219
ʣ	-4220
Ե	-4221
ǿ	-4222
λ	-4223
Ū	-4224
飬	-4225
ӵ	-4226
͵	-4227
ǻ	-4228
ڴ	-4229
ҽ	-4230
ӭ	-4231
ݣ	-4232
߽	-4233
ƽ	-4234
̧	-4235
࣬	-4236
ƶ	-4237
μ	-4238
ɫ	-4239
ִ	-4240
	-4241
ϡ	-4242
֡	-4243
æ	-4244
꣬	-4245
Z	-4246
Ұ	-4247
ָ	-4248
š	-4249
Ҷ	-4250
ֲ	-4251
ޣ	-4252
Ը	-4253
˯	-4254
á	-4255
м	-4256
˴	-4257
õ	-4258
ʿ	-4259
˶	-4260
ǽ	-4261
ë	-4262
ڵ	-4263
ᣬ	-4264
Ƿ	-4265
д	-4266
ֶ	-4267
ײ	-4268
κ	-4269
ú	-4270
ȵ	-4271
˰	-4272
ѽ	-4273
˳	-4274
Θ	-4275
ɹ	-4276
и	-4277
׽	-4278
ĺ	-4279
ͯ	-4280
Ի	-4281
ж	-4282
㿴	-4283
Ͼ	-4284
⁄	-4285
2	-4286
˾	-4287
ò	-4288
¥	-4289
Ž	-4290
Ⱥ	-4291
ʤ	-4292
ʩ	-4293
Ժ	-4294
˱	-4295
˷	-4296
˹	-4297
к	-4298
˲	-4299
ɢ	-4300
Ӧ	-4301
Ǽ	-4302
յ	-4303
Ҵ	-4304
߼	-4305
㡣	-4306
˫	-4307
ء	-4308
ڶ	-4309
Ƥ	-4310
ɵ	-4311
ԡ	-4312
Ա	-4313
ù	-4314
Ķ	-4315
ں	-4316
Լ	-4317
Ļ	-4318
ֳ	-4319
ɡ	-4320
룬	-4321
ĵ	-4322
ʁ	-4323
Ρ	-4324
ݷ	-4325
L	-4326
s	-4327
ȫ	-4328
߰	-4329
硣	-4330
ŭ	-4331
¶	-4332
ơ	-4333
̲	-4334
㲻	-4335
壬	-4336
˿	-4337
ֹ	-4338
ۿ	-4339
r	-4340
԰	-4341
ط	-4342
ҩ	-4343
϶	-4344
Ϻ	-4345
ҳ	-4346
Ԫ	-4347
ý	-4348
ʧ	-4349
Ͻ	-4350
ɲ	-4351
Ƶ	-4352
̨	-4353
ع	-4354
顣	-4355
ó	-4356
»	-4357
߳	-4358
÷	-4359
˻	-4360
Գ	-4361
˸	-4362
װ	-4363
Ź	-4364
ı	-4365
Բ	-4366
ɾ	-4367
й	-4368
վ	-4369
ܡ	-4370
ð	-4371
ڡ	-4372
Ĺ	-4373
Ϸ	-4374
Ӳ	-4375
Ʒ	-4376
ϼ	-4377
β	-4378
ұ	-4379
Һ	-4380
޵	-4381
I	-4382
Ҿ	-4383
Ҽ	-4384
	-4385
ö	-4386
Ż	-4387
Ӱ	-4388
Դ	-4389
չ	-4390
ׯ	-4391
Ǿ	-4392
ҿ	-4393
ڹ	-4394
߸	-4395
J	-4396
ʫ	-4397
ڿ	-4398
3	-4399
Ĵ	-4400
Թ	-4401
ߺ	-4402
Ŷ	-4403
˺	-4404
ø	-4405
˭	-4406
в	-4407
ޡ	-4408
־	-4409
ڰ	-4410
䡣	-4411
档	-4412
裬	-4413
ѡ	-4414
ü	-4415
ѹ	-4416
ñ	-4417
Ľ	-4418
م	-4419
ݡ	-4420
Ʋ	-4421
ƹ	-4422
ڳ	-4423
졣	-4424
Ŵ	-4425
ƿ	-4426
ʡ	-4427
Ͷ	-4428
Ƴ	-4429
ڽ	-4430
°	-4431
ÿ	-4432
׹	-4433
䡢	-4434
ʨ	-4435
ְ	-4436
ӳ	-4437
ղ	-4438
١	-4439
ų	-4440
ƾ	-4441
н	-4442
ض	-4443
߲	-4444
б	-4445
Խ	-4446
ࡣ	-4447
h	-4448
İ	-4449
ķ	-4450
Ű	-4451
ź	-4452
ͻ	-4453
ϻ	-4454
ֺ	-4455
Ʈ	-4456
Ȳ	-4457
ҷ	-4458
ٲ	-4459
仯	-4460
ݵ	-4461
4	-4462
ֿ	-4463
׷	-4464
ܽ	-4465
Ϣ	-4466
ا	-4467
з	-4468
ߴ	-4469
ž	-4470
i	-4471
ƻ	-4472
ȱ	-4473
Χ	-4474
г	-4475
ͤ	-4476
Ͱ	-4477
Ծ	-4478
ي	-4479
Ǯ	-4480
ռ	-4481
ر	-4482
ꡣ	-4483
˧	-4484
Ъ	-4485
о	-4486
Ѳ	-4487
ɰ	-4488
Ҹ	-4489
͸	-4490
Ȱ	-4491
ƥ	-4492
̡	-4493
ն	-4494
߶	-4495
Ѹ	-4496
ɨ	-4497
ַ	-4498
̤	-4499
ѩ	-4500
롣	-4501
و	-4502
ڼ	-4503
ۡ	-4504
ż	-4505
ȹ	-4506
Ͳ	-4507
س	-4508
𹿰	-4509
«	-4510
ɴ	-4511
ϳ	-4512
Ѷ	-4513
޹	-4514
߹	-4515
Ÿ	-4516
ζ	-4517
ҧ	-4518
η	-4519
ز	-4520
ڷ	-4521
ű	-4522
ܵ	-4523
簡	-4524
͡	-4525
ͳ	-4526
ѵ	-4527
ٰ	-4528
ش	-4529
ڲ	-4530
ܰ	-4531
Ų	-4532
Ȫ	-4533
ͼ	-4534
ݽ	-4535
ȷ	-4536
̰	-4537
غ	-4538
塣	-4539
Ѫ	-4540
ջ	-4541
ڱ	-4542
	-4543
ȳ	-4544
׳	-4545
޺	-4546
߻	-4547
ᡣ	-4548
̥	-4549
״	-4550
칬	-4551
΢	-4552
Ѻ	-4553
ӱ	-4554
֤	-4555
̸	-4556
Է	-4557
֦	-4558
ؼ	-4559
ټ	-4560
컯	-4561
ŷ	-4562
̾	-4563
ͭ	-4564
Ӿ	-4565
̵	-4566
ϯ	-4567
Ӷ	-4568
߷	-4569
	-4570
Ѿ	-4571
ק	-4572
ڻ	-4573
ɺ	-4574
́	-4575
ѳ	-4576
ٳ	-4577
߿	-4578
ʼ	-4579
̄	-4580
ӿ	-4581
۵	-4582
䣡	-4583
ɸ	-4584
ʢ	-4585
Ӻ	-4586
ӻ	-4587
̻	-4588
͹	-4589
;	-4590
Ⱦ	-4591
п	-4592
ӽ	-4593
ٱ	-4594
ھ	-4595
޲	-4596
ѱ	-4597
ӹ	-4598
ٽ	-4599
ȭ	-4600
ι	-4601
ѻ	-4602
Ƭ	-4603
ɷ	-4604
̶	-4605
ճ	-4606
շ	-4607
ױ	-4608
ؽ	-4609
ޱ	-4610
޴	-4611
ƺ	-4612
ɿ	-4613
Ү	-4614
Ѵ	-4615
ӷ	-4616
ؾ	-4617
ٿ	-4618
ܲ	-4619
ƴ	-4620
ɭ	-4621
Ӣ	-4622
Ӵ	-4623
ػ	-4624
߱	-4625
衣	-4626
ɶ	-4627
ѧ	-4628
߾	-4629
Ħ	-4630
׼	-4631
	-4632
þ	-4633
̽	-4634
׵	-4635
޼	-4636
ĥ	-4637
Ƚ	-4638
ר	-4639
ۇ	-4640
㻹	-4641
ʬ	-4642
ձ	-4643
٤	-4644
˩	-4645
ρ	-4646
޶	-4647
޷	-4648
w	-4649
o	-4650
Ͽ	-4651
ץ	-4652
ļ	-4653
Ȧ	-4654
Ω	-4655
۾	-4656
䲻	-4657
̷	-4658
մ	-4659
Ƽ	-4660
ȸ	-4661
Ϳ	-4662
Կ	-4663
ٻ	-4664
پ	-4665
߯	-4666
Ĩ	-4667
ȿ	-4668
ʺ	-4669
۷	-4670
ܴ	-4671
ͅ	-4672
θ	-4673
ν	-4674
Ӽ	-4675
ܳ	-4676
,	-4677
ɼ	-4678
׶	-4679
ƭ	-4680
ȼ	-4681
ͱ	-4682
ڸ	-4683
Ǭ	-4684
ѷ	-4685
ٹ	-4686
޳	-4687
Ť	-4688
̳	-4689
Ь	-4690
ӥ	-4691
հ	-4692
ݹ	-4693
콫	-4694
ɥ	-4695
ͦ	-4696
ѿ	-4697
޸	-4698
ȶ	-4699
ξ	-4700
ة	-4701
۲	-4702
ݳ	-4703
ݶ	-4704
ݺ	-4705
㣡	-4706
磿	-4707
󾪵	-4708
̴	-4709
۶	-4710
ܻ	-4711
	-4712
ƫ	-4713
˪	-4714
ԩ	-4715
ذ	-4716
ظ	-4717
ل	-4718
ى	-4719
̿	-4720
Я	-4721
Ӯ	-4722
պ	-4723
׾	-4724
ⳡ	-4725
±	-4726
ʾ	-4727
֧	-4728
ܱ	-4729
Ƹ	-4730
ܹ	-4731
𡣡	-4732
̹	-4733
α	-4734
γ	-4735
ٺ	-4736
۹	-4737
ܼ	-4738
ݱ	-4739
棡	-4740
ӯ	-4741
ް	-4742
޿	-4743
澭	-4744
׺	-4745
ⲻ	-4746
䡷	-4747
ư	-4748
ɩ	-4749
լ	-4750
ո	-4751
տ	-4752
׮	-4753
۴	-4754
ۻ	-4755
¿	-4756
Ŭ	-4757
ů	-4758
ͥ	-4759
צ	-4760
ؿ	-4761
۱	-4762
ۼ	-4763
ܷ	-4764
ݿ	-4765
㽫	-4766
粻	-4767
ܶ	-4768
ܺ	-4769
弓	-4770
겻	-4771
ū	-4772
۽	-4773
ݻ	-4774
޽	-4775
첻	-4776
Ũ	-4777
ΰ	-4778
Ϭ	-4779
Ѽ	-4780
ت	-4781
ݸ	-4782
಻	-4783
㵹	-4784
y	-4785
Ȯ	-4786
Ĭ	-4787
ܸ	-4788
ܿ	-4789
ݰ	-4790
⹫	-4791
磡	-4792
Ȩ	-4793
̺	-4794
̼	-4795
Т	-4796
ժ	-4797
ݼ	-4798
볯	-4799
붴	-4800
	-4801
󾭣	-4802
Į	-4803
̩	-4804
Ѩ	-4805
Ӫ	-4806
Ӭ	-4807
ש	-4808
޻	-4809
ߥ	-4810
巽	-4811
￴	-4812
©	-4813
Ʊ	-4814
ο	-4815
Ϫ	-4816
ܾ	-4817
᲻	-4818
a	-4819
ه	-4820
ݲ	-4821
޾	-4822
⻰	-4823
򡣡	-4824
򾻣	-4825
׸	-4826
	-4827
Υ	-4828
֥	-4829
ע	-4830
׻	-4831
ڤ	-4832
⿪	-4833
㣿	-4834
ҫ	-4835
Ӹ	-4836
ۺ	-4837
ݴ	-4838
㤾	-4839
治	-4840
紵	-4841
뺣	-4842
죡	-4843
	-4844
񣿡	-4845
ˬ	-4846
ί	-4847
ف	-4848
ⱦ	-4849
ⳤ	-4850
㵽	-4851
絽	-4852
跹	-4853
𣬾	-4854
󣬽	-4855
Ӥ	-4856
ݾ	-4857
	-4858
󣬲	-4859
ŧ	-4860
ϧ	-4861
Ԥ	-4862
ج	-4863
⣿	-4864
ⷬ	-4865
滨	-4866
飡	-4867
鼪	-4868
𣬰	-4869
𣿡	-4870
󣬰	-4871
˥	-4872
࣡	-4873
漴	-4874
硪	-4875
볤	-4876
ʻ	-4877
Х	-4878
׿	-4879
۸	-4880
㶼	-4881
湫	-4882
벻	-4883
쾮	-4884
	-4885
𣬲	-4886
񡣡	-4887
񣬲	-4888
t	-4889
¬	-4890
Ȥ	-4891
̱	-4892
Ю	-4893
Ѭ	-4894
թ	-4895
֬	-4896
佫	-4897
桢	-4898
磻	-4899
쿪	-4900
𣬽	-4901
𾦣	-4902
󣬻	-4903
󺣣	-4904
é	-4905
ʽ	-4906
̦	-4907
խ	-4908
إ	-4909
꣡	-4910
뷽	-4911
캢	-4912
󣬱	-4913
M	-4914
S	-4915
§	-4916
ǫ	-4917
Ԩ	-4918
׬	-4919
خ	-4920
㾫	-4921
棿	-4922
ꡢ	-4923
뵽	-4924
죿	-4925
찶	-4926
𣬶	-4927
񣬸	-4928
򣡡	-4929
󣬶	-4930
î	-4931
ƪ	-4932
ή	-4933
ϥ	-4934
ѥ	-4935
ӧ	-4936
ح	-4937
۳	-4938
㰸	-4939
㸸	-4940
廨	-4941
羪	-4942
鿱	-4943
쳤	-4944
	-4945
	-4946
	-4947
𣡡	-4948
𣬿	-4949
񣡡	-4950
񣬶	-4951
󡣡	-4952
󣬿	-4953
â	-4954
ī	-4955
ʪ	-4956
͢	-4957
ѯ	-4958
է	-4959
ᆱ	-4960
⻹	-4961
䵱	-4962
硢	-4963
飿	-4964
쬵	-4965
	-4966
𣬵	-4967
񣬰	-4968
񣬽	-4969
򵹣	-4970
󣬾	-4971
󾭡	-4972
[	-4973
g	-4974
v	-4975
Ҩ	-4976
ԫ	-4977
֯	-4978
ࣺ	-4979
ࣿ	-4980
᣿	-4981
ⶾ	-4982
廪	-4983
廷	-4984
类	-4985
裡	-4986
ꪣ	-4987
𣬱	-4988
񣬼	-4989
򣬵	-4990
󣬷	-4991
󣬸	-4992
T	-4993
p	-4994
Ƨ	-4995
۰	-4996
